{
  "version": "1.0",
  "truncation": null,
  "padding": null,
  "added_tokens": [
    {
      "id": 0,
      "content": "<|j3_pad|>",
      "single_word": false,
      "lstrip": false,
      "rstrip": false,
      "normalized": false,
      "special": true
    },
    {
      "id": 1,
      "content": "<|j3_unk|>",
      "single_word": false,
      "lstrip": false,
      "rstrip": false,
      "normalized": false,
      "special": true
    },
    {
      "id": 2,
      "content": "<|j3_bos|>",
      "single_word": false,
      "lstrip": false,
      "rstrip": false,
      "normalized": false,
      "special": true
    },
    {
      "id": 3,
      "content": "<|j3_eos|>",
      "single_word": false,
      "lstrip": false,
      "rstrip": false,
      "normalized": false,
      "special": true
    }
  ],
  "normalizer": {
    "type": "NFKC"
  },
  "pre_tokenizer": {
    "type": "ByteLevel",
    "add_prefix_space": false,
    "trim_offsets": true,
    "use_regex": true
  },
  "post_processor": null,
  "decoder": {
    "type": "ByteLevel",
    "add_prefix_space": true,
    "trim_offsets": true,
    "use_regex": true
  },
  "model": {
    "type": "BPE",
    "dropout": null,
    "unk_token": "<|j3_unk|>",
    "continuing_subword_prefix": null,
    "end_of_word_suffix": null,
    "fuse_unk": false,
    "byte_fallback": false,
    "ignore_merges": false,
    "vocab": {
      "<|j3_pad|>": 0,
      "<|j3_unk|>": 1,
      "<|j3_bos|>": 2,
      "<|j3_eos|>": 3,
      "!": 4,
      "\"": 5,
      "#": 6,
      "$": 7,
      "%": 8,
      "&": 9,
      "'": 10,
      "(": 11,
      ")": 12,
      "*": 13,
      "+": 14,
      ",": 15,
      "-": 16,
      ".": 17,
      "/": 18,
      "0": 19,
      "1": 20,
      "2": 21,
      "3": 22,
      "4": 23,
      "5": 24,
      "6": 25,
      "7": 26,
      "8": 27,
      "9": 28,
      ":": 29,
      ";": 30,
      "<": 31,
      "=": 32,
      ">": 33,
      "?": 34,
      "@": 35,
      "A": 36,
      "B": 37,
      "C": 38,
      "D": 39,
      "E": 40,
      "F": 41,
      "G": 42,
      "H": 43,
      "I": 44,
      "J": 45,
      "K": 46,
      "L": 47,
      "M": 48,
      "N": 49,
      "O": 50,
      "P": 51,
      "Q": 52,
      "R": 53,
      "S": 54,
      "T": 55,
      "U": 56,
      "V": 57,
      "W": 58,
      "X": 59,
      "Y": 60,
      "Z": 61,
      "[": 62,
      "\\": 63,
      "]": 64,
      "^": 65,
      "_": 66,
      "`": 67,
      "a": 68,
      "b": 69,
      "c": 70,
      "d": 71,
      "e": 72,
      "f": 73,
      "g": 74,
      "h": 75,
      "i": 76,
      "j": 77,
      "k": 78,
      "l": 79,
      "m": 80,
      "n": 81,
      "o": 82,
      "p": 83,
      "q": 84,
      "r": 85,
      "s": 86,
      "t": 87,
      "u": 88,
      "v": 89,
      "w": 90,
      "x": 91,
      "y": 92,
      "z": 93,
      "{": 94,
      "|": 95,
      "}": 96,
      "~": 97,
      "¡": 98,
      "¢": 99,
      "£": 100,
      "¤": 101,
      "¥": 102,
      "¦": 103,
      "§": 104,
      "¨": 105,
      "©": 106,
      "ª": 107,
      "«": 108,
      "¬": 109,
      "®": 110,
      "¯": 111,
      "°": 112,
      "±": 113,
      "²": 114,
      "³": 115,
      "´": 116,
      "µ": 117,
      "¶": 118,
      "·": 119,
      "¸": 120,
      "¹": 121,
      "º": 122,
      "»": 123,
      "¼": 124,
      "½": 125,
      "¾": 126,
      "¿": 127,
      "À": 128,
      "Á": 129,
      "Â": 130,
      "Ã": 131,
      "Ä": 132,
      "Å": 133,
      "Æ": 134,
      "Ç": 135,
      "È": 136,
      "É": 137,
      "Ê": 138,
      "Ë": 139,
      "Ì": 140,
      "Í": 141,
      "Î": 142,
      "Ï": 143,
      "Ð": 144,
      "Ñ": 145,
      "Ò": 146,
      "Ó": 147,
      "Ô": 148,
      "Õ": 149,
      "Ö": 150,
      "×": 151,
      "Ø": 152,
      "Ù": 153,
      "Ú": 154,
      "Û": 155,
      "Ü": 156,
      "Ý": 157,
      "Þ": 158,
      "ß": 159,
      "à": 160,
      "á": 161,
      "â": 162,
      "ã": 163,
      "ä": 164,
      "å": 165,
      "æ": 166,
      "ç": 167,
      "è": 168,
      "é": 169,
      "ê": 170,
      "ë": 171,
      "ì": 172,
      "í": 173,
      "î": 174,
      "ï": 175,
      "ð": 176,
      "ñ": 177,
      "ò": 178,
      "ó": 179,
      "ô": 180,
      "õ": 181,
      "ö": 182,
      "÷": 183,
      "ø": 184,
      "ù": 185,
      "ú": 186,
      "û": 187,
      "ü": 188,
      "ý": 189,
      "þ": 190,
      "ÿ": 191,
      "Ā": 192,
      "ā": 193,
      "Ă": 194,
      "ă": 195,
      "Ą": 196,
      "ą": 197,
      "Ć": 198,
      "ć": 199,
      "Ĉ": 200,
      "ĉ": 201,
      "Ċ": 202,
      "ċ": 203,
      "Č": 204,
      "č": 205,
      "Ď": 206,
      "ď": 207,
      "Đ": 208,
      "đ": 209,
      "Ē": 210,
      "ē": 211,
      "Ĕ": 212,
      "ĕ": 213,
      "Ė": 214,
      "ė": 215,
      "Ę": 216,
      "ę": 217,
      "Ě": 218,
      "ě": 219,
      "Ĝ": 220,
      "ĝ": 221,
      "Ğ": 222,
      "ğ": 223,
      "Ġ": 224,
      "ġ": 225,
      "Ģ": 226,
      "ģ": 227,
      "Ĥ": 228,
      "ĥ": 229,
      "Ħ": 230,
      "ħ": 231,
      "Ĩ": 232,
      "ĩ": 233,
      "Ī": 234,
      "ī": 235,
      "Ĭ": 236,
      "ĭ": 237,
      "Į": 238,
      "į": 239,
      "İ": 240,
      "ı": 241,
      "Ĳ": 242,
      "ĳ": 243,
      "Ĵ": 244,
      "ĵ": 245,
      "Ķ": 246,
      "ķ": 247,
      "ĸ": 248,
      "Ĺ": 249,
      "ĺ": 250,
      "Ļ": 251,
      "ļ": 252,
      "Ľ": 253,
      "ľ": 254,
      "Ŀ": 255,
      "ŀ": 256,
      "Ł": 257,
      "ł": 258,
      "Ń": 259,
      "Ġt": 260,
      "Ġa": 261,
      "in": 262,
      "he": 263,
      "re": 264,
      "on": 265,
      "Ġthe": 266,
      "er": 267,
      "Ġs": 268,
      "at": 269,
      "Ġo": 270,
      "en": 271,
      "Ġc": 272,
      "es": 273,
      "Ġw": 274,
      "nd": 275,
      "it": 276,
      "is": 277,
      "or": 278,
      "ing": 279,
      "al": 280,
      "Ġp": 281,
      "ed": 282,
      "Ġf": 283,
      "Ġb": 284,
      "an": 285,
      "Ġof": 286,
      "ou": 287,
      "ar": 288,
      "Ġin": 289,
      "Ġm": 290,
      "Ġand": 291,
      "ic": 292,
      "ion": 293,
      "Ġto": 294,
      "Ġd": 295,
      "le": 296,
      "ro": 297,
      "as": 298,
      "Ġh": 299,
      "Ġth": 300,
      "ent": 301,
      "Ġe": 302,
      "ct": 303,
      "Ġre": 304,
      "om": 305,
      "Ġl": 306,
      "il": 307,
      "st": 308,
      "ve": 309,
      "ĠT": 310,
      "Ġn": 311,
      "ly": 312,
      "et": 313,
      "se": 314,
      "im": 315,
      "Ġg": 316,
      "ol": 317,
      "ation": 318,
      "ĠA": 319,
      "ce": 320,
      "Ġbe": 321,
      "id": 322,
      "ra": 323,
      "ut": 324,
      "Ġis": 325,
      "ow": 326,
      "ur": 327,
      "ot": 328,
      "ĠI": 329,
      "ig": 330,
      "Ġu": 331,
      "ĠS": 332,
      "ch": 333,
      "ver": 334,
      "Ġfor": 335,
      "Ġst": 336,
      "ĠC": 337,
      "Ġthat": 338,
      "Ġon": 339,
      "ir": 340,
      "ul": 341,
      "am": 342,
      "Ġy": 343,
      "el": 344,
      "âĢ": 345,
      "ay": 346,
      "Ġcon": 347,
      "ĠThe": 348,
      "ith": 349,
      "her": 350,
      "ad": 351,
      "Ġas": 352,
      "if": 353,
      "Ġpro": 354,
      "ter": 355,
      "Ġwh": 356,
      "Ġan": 357,
      "Ġwith": 358,
      "Ġit": 359,
      "ĠM": 360,
      "Ġor": 361,
      "Ġyou": 362,
      "Ġal": 363,
      "od": 364,
      "Ġ1": 365,
      "ĠB": 366,
      "Ġex": 367,
      "em": 368,
      "ers": 369,
      "Ġ(": 370,
      "ĠP": 371,
      "ist": 372,
      "ies": 373,
      "ag": 374,
      "ate": 375,
      "Ġare": 376,
      "Ġcom": 377,
      "ess": 378,
      "us": 379,
      "th": 380,
      "res": 381,
      "um": 382,
      "ĠW": 383,
      "op": 384,
      "ect": 385,
      "ab": 386,
      "ĠH": 387,
      "Ġhe": 388,
      "ere": 389,
      "Ġde": 390,
      "ity": 391,
      "Ġv": 392,
      "qu": 393,
      "ore": 394,
      "iv": 395,
      "and": 396,
      "ive": 397,
      "ill": 398,
      "ke": 399,
      "Ġsu": 400,
      "ac": 401,
      "ld": 402,
      "os": 403,
      "pp": 404,
      "est": 405,
      "ĠF": 406,
      "ain": 407,
      "ĠE": 408,
      "ment": 409,
      "igh": 410,
      "nt": 411,
      "Ġby": 412,
      "ĠD": 413,
      "rom": 414,
      "ant": 415,
      "ĠR": 416,
      "Ġat": 417,
      "ci": 418,
      "ri": 419,
      "Ġch": 420,
      "un": 421,
      "Ġwas": 422,
      "Ġse": 423,
      "Ġne": 424,
      "--": 425,
      "Ġha": 426,
      "Ġr": 427,
      "ĠN": 428,
      "ure": 429,
      "ort": 430,
      "ical": 431,
      "Ġen": 432,
      "Ġfrom": 433,
      "Ġle": 434,
      "Ġ2": 435,
      "ĠL": 436,
      "ud": 437,
      "'s": 438,
      "Ġcan": 439,
      "rou": 440,
      "ĠG": 441,
      "Ġsh": 442,
      "ions": 443,
      "art": 444,
      "Ġsp": 445,
      "ap": 446,
      "ight": 447,
      "og": 448,
      "all": 449,
      "gh": 450,
      "Ġthis": 451,
      "Ġnot": 452,
      "out": 453,
      "Ġint": 454,
      "Ġab": 455,
      "Ġ\"": 456,
      "Ġwe": 457,
      "pl": 458,
      "ĠâĢ": 459,
      "ĠO": 460,
      "ould": 461,
      "ome": 462,
      "Ġhave": 463,
      "ine": 464,
      "ge": 465,
      "Ġwor": 466,
      "ust": 467,
      "Ġus": 468,
      "ĠIn": 469,
      "iz": 470,
      "our": 471,
      "Ġim": 472,
      "ard": 473,
      "ther": 474,
      "oc": 475,
      "Ġtheir": 476,
      "pt": 477,
      "ich": 478,
      "ous": 479,
      "ĠTh": 480,
      "Ġpl": 481,
      "act": 482,
      "00": 483,
      "Ġwhe": 484,
      "per": 485,
      "ans": 486,
      "ost": 487,
      "ell": 488,
      "ated": 489,
      "Ġk": 490,
      "ations": 491,
      "Ġthey": 492,
      "ak": 493,
      "ĠJ": 494,
      "ally": 495,
      "are": 496,
      "Ġcont": 497,
      "Ġcomp": 498,
      "ast": 499,
      "ff": 500,
      "ong": 501,
      "ult": 502,
      "end": 503,
      "Ġso": 504,
      "ide": 505,
      "Ġad": 506,
      "ĠU": 507,
      "âĢĻ": 508,
      "ib": 509,
      "Ġall": 510,
      "du": 511,
      "Ġdis": 512,
      "age": 513,
      "Ġres": 514,
      "Ġyour": 515,
      "Ġwhich": 516,
      "ru": 517,
      "cc": 518,
      "ary": 519,
      "ie": 520,
      "ial": 521,
      "Ġ-": 522,
      "ance": 523,
      "orm": 524,
      "ear": 525,
      "Ġinc": 526,
      "so": 527,
      "ip": 528,
      "able": 529,
      "Ġdo": 530,
      "ence": 531,
      "Ġun": 532,
      "Ġcl": 533,
      "Ġme": 534,
      "ks": 535,
      "vel": 536,
      "ire": 537,
      "ood": 538,
      "ind": 539,
      "Ġbut": 540,
      "Ġmore": 541,
      "Ġar": 542,
      "Ġother": 543,
      "ents": 544,
      "ign": 545,
      "ep": 546,
      "Ġj": 547,
      "Ġwill": 548,
      "ia": 549,
      "av": 550,
      "ike": 551,
      "ces": 552,
      "ry": 553,
      "reat": 554,
      "ach": 555,
      "ass": 556,
      "Ġabout": 557,
      "Ġman": 558,
      "ction": 559,
      "ress": 560,
      "ose": 561,
      "Ġev": 562,
      "Ġwere": 563,
      "Ġhas": 564,
      "Ġper": 565,
      "ec": 566,
      "Ġone": 567,
      "Ġapp": 568,
      "Ġte": 569,
      "Ġimp": 570,
      "ater": 571,
      "one": 572,
      "ile": 573,
      "ory": 574,
      "Ġhis": 575,
      "ame": 576,
      "very": 577,
      "ition": 578,
      "ime": 579,
      "nder": 580,
      "ang": 581,
      "Ġinto": 582,
      "ice": 583,
      "Ġ19": 584,
      "ors": 585,
      "Ġout": 586,
      "ack": 587,
      "Ġ,": 588,
      "----": 589,
      "Ġpart": 590,
      "ace": 591,
      "ber": 592,
      "ĠSt": 593,
      "Ġthem": 594,
      "Ġpre": 595,
      "ue": 596,
      "au": 597,
      "Ġcomm": 598,
      "ish": 599,
      "ens": 600,
      "ok": 601,
      "ake": 602,
      "Ġup": 603,
      "Ġthese": 604,
      "now": 605,
      "ĠThis": 606,
      "Ġbec": 607,
      "ord": 608,
      "Ġlike": 609,
      "rit": 610,
      "ĠK": 611,
      "rough": 612,
      "Ġwho": 613,
      "Ġqu": 614,
      "ound": 615,
      "Ġ.": 616,
      "ild": 617,
      "Ġsome": 618,
      "Ġalso": 619,
      "ount": 620,
      "form": 621,
      "Ġpe": 622,
      "ual": 623,
      "ase": 624,
      "olog": 625,
      "ough": 626,
      "ĠIt": 627,
      "iff": 628,
      "ings": 629,
      "Ġits": 630,
      "Ġwhen": 631,
      "Ġhow": 632,
      "ew": 633,
      "Ġsy": 634,
      "Ġ3": 635,
      ").": 636,
      "ub": 637,
      "low": 638,
      "Ġthere": 639,
      "ays": 640,
      "ric": 641,
      "Ġunder": 642,
      "Ġro": 643,
      "Ġem": 644,
      "ating": 645,
      "Ġtra": 646,
      "Ġbet": 647,
      "ons": 648,
      "ian": 649,
      "ite": 650,
      "ĠY": 651,
      "ĠCh": 652,
      "Ġthan": 653,
      "ates": 654,
      "ific": 655,
      "ities": 656,
      "ph": 657,
      "ond": 658,
      "Ġind": 659,
      "ree": 660,
      "Ġag": 661,
      "Ġdiff": 662,
      "Ġra": 663,
      "Ġhad": 664,
      "ĠV": 665,
      "Ġwould": 666,
      "Ġgo": 667,
      "Ġtime": 668,
      "les": 669,
      "ious": 670,
      "ople": 671,
      "ail": 672,
      "Ġmay": 673,
      "we": 674,
      "pe": 675,
      "Ġover": 676,
      "Ġour": 677,
      "ms": 678,
      "Ġcol": 679,
      "Ġknow": 680,
      "ts": 681,
      "lect": 682,
      "Ġdes": 683,
      "tern": 684,
      "Ġrel": 685,
      "ple": 686,
      "Ġcons": 687,
      "Ġsuch": 688,
      "ove": 689,
      "Ġstud": 690,
      "ll": 691,
      "âĢĿ": 692,
      "Ġrec": 693,
      "ĠâĢľ": 694,
      "vers": 695,
      "erv": 696,
      "Ġtr": 697,
      "Ġtw": 698,
      "Ġbeen": 699,
      "Ġact": 700,
      "Ġwhat": 701,
      "ning": 702,
      "uring": 703,
      "ys": 704,
      "Ġpeople": 705,
      "row": 706,
      "Ġif": 707,
      "cial": 708,
      "Ġthrough": 709,
      "irst": 710,
      "red": 711,
      "ook": 712,
      "round": 713,
      "ause": 714,
      "Ġam": 715,
      "ful": 716,
      "Ġwork": 717,
      "lic": 718,
      "ob": 719,
      "Ġacc": 720,
      "Ġyear": 721,
      "Ġnew": 722,
      "te": 723,
      "ne": 724,
      "ics": 725,
      "Ġgen": 726,
      "ject": 727,
      "ative": 728,
      "Ġany": 729,
      "ures": 730,
      "ular": 731,
      "ĠWh": 732,
      "Ġpr": 733,
      "mer": 734,
      "ments": 735,
      "ov": 736,
      "lud": 737,
      "ĠAs": 738,
      "Ġuse": 739,
      "rib": 740,
      "stem": 741,
      "Ġoff": 742,
      "hed": 743,
      "cess": 744,
      "ced": 745,
      "Ġsa": 746,
      "Ġbl": 747,
      "eth": 748,
      "Ġfe": 749,
      "Ġpo": 750,
      "Ġeff": 751,
      "Ġsc": 752,
      "Ġno": 753,
      "als": 754,
      "Ġph": 755,
      "ren": 756,
      "Ġdiffere": 757,
      "Ġ*": 758,
      "Ġac": 759,
      "ink": 760,
      "Ġexp": 761,
      "oth": 762,
      "Ġreg": 763,
      "Ġmost": 764,
      "Ġtwo": 765,
      "ween": 766,
      "ath": 767,
      "Ġco": 768,
      "Ġhel": 769,
      "Ġrep": 770,
      "Ġrem": 771,
      "Ġ4": 772,
      "Ġinv": 773,
      "ark": 774,
      "Ġneed": 775,
      "),": 776,
      "hen": 777,
      "velop": 778,
      "ility": 779,
      "sel": 780,
      "..": 781,
      "erm": 782,
      "int": 783,
      "fter": 784,
      "old": 785,
      "Ġbetween": 786,
      "ĠUn": 787,
      "Ġob": 788,
      "Ġonly": 789,
      "Ġher": 790,
      "oss": 791,
      "ract": 792,
      "Ġwhere": 793,
      "ower": 794,
      "Ġprov": 795,
      "Ġfirst": 796,
      "tain": 797,
      "ational": 798,
      "ise": 799,
      "Ġdec": 800,
      "Ġhelp": 801,
      "Ġinclud": 802,
      "ten": 803,
      "Ġexam": 804,
      "'t": 805,
      "Ġused": 806,
      "Ġinter": 807,
      "Ġmany": 808,
      "Ġsur": 809,
      "xt": 810,
      "Ġcould": 811,
      "Ġexpl": 812,
      "Ġ20": 813,
      "ible": 814,
      "Ġinst": 815,
      "Ġatt": 816,
      "ĠHe": 817,
      "fore": 818,
      "Ġsystem": 819,
      "Ġprodu": 820,
      "ife": 821,
      "ied": 822,
      "ict": 823,
      "wn": 824,
      "uc": 825,
      "ered": 826,
      "ased": 827,
      "Ġ5": 828,
      "hes": 829,
      "Ġ=": 830,
      "Ġadd": 831,
      "own": 832,
      "stand": 833,
      "chn": 834,
      "ĠAn": 835,
      "alth": 836,
      "Ġfl": 837,
      "Ġdisc": 838,
      "Ġdevelop": 839,
      "Ġmod": 840,
      "ism": 841,
      "Ġinf": 842,
      "cept": 843,
      "ural": 844,
      "Ġcall": 845,
      "ting": 846,
      "Ġsub": 847,
      "ever": 848,
      "Ġsm": 849,
      "cy": 850,
      "Ġtrans": 851,
      "Ġpers": 852,
      "ists": 853,
      "iss": 854,
      "ution": 855,
      "gan": 856,
      "ble": 857,
      "Ġsim": 858,
      "ade": 859,
      "erg": 860,
      "its": 861,
      "ange": 862,
      "ives": 863,
      "ily": 864,
      "Ġlear": 865,
      "Ġform": 866,
      "Ġnum": 867,
      "ram": 868,
      "Ġevery": 869,
      "Ġ'": 870,
      "ident": 871,
      "uch": 872,
      "Ġjust": 873,
      "Ġ200": 874,
      "Ġvar": 875,
      "ĠFor": 876,
      "ĠâĢĵ": 877,
      "Ġeven": 878,
      "Ġworld": 879,
      "Ġexper": 880,
      "aking": 881,
      "Ġsupp": 882,
      "Ġdi": 883,
      "aw": 884,
      "Ġspec": 885,
      "Ġdifferent": 886,
      "pect": 887,
      "ines": 888,
      "get": 889,
      "Ġsign": 890,
      "ature": 891,
      "urn": 892,
      "ues": 893,
      "ĠAl": 894,
      "other": 895,
      "Ġref": 896,
      "ward": 897,
      "ick": 898,
      "Ġpol": 899,
      "arch": 900,
      "Ġthen": 901,
      "Ġmy": 902,
      "Ġhum": 903,
      "ĠHow": 904,
      "Ġbu": 905,
      "oy": 906,
      "Ġpres": 907,
      "ft": 908,
      "ĠRe": 909,
      "ness": 910,
      "Ġcre": 911,
      "ited": 912,
      "--------": 913,
      "ng": 914,
      "ology": 915,
      "ically": 916,
      "Ġwhile": 917,
      "Ġear": 918,
      "ually": 919,
      "ĠCon": 920,
      "iqu": 921,
      "Ġyears": 922,
      "Ġbecause": 923,
      "Ġstr": 924,
      "Ġins": 925,
      "Ġget": 926,
      "Ġty": 927,
      "Ġval": 928,
      "ins": 929,
      "Ġthose": 930,
      "Ġduring": 931,
      "Ġwater": 932,
      "land": 933,
      "Ġsee": 934,
      "Ġeach": 935,
      "Ġdef": 936,
      "Ġimport": 937,
      "Ġcent": 938,
      "Ġhigh": 939,
      "Ġtechn": 940,
      "Ġshould": 941,
      "ĠWe": 942,
      "Ġwell": 943,
      "Ġcommun": 944,
      "Ġspe": 945,
      "ruct": 946,
      "ants": 947,
      "ize": 948,
      "Ġart": 949,
      "ros": 950,
      "meric": 951,
      "Ġfol": 952,
      "Ġgener": 953,
      "Ġset": 954,
      "Ġdist": 955,
      "Ġke": 956,
      "ool": 957,
      "hip": 958,
      "imes": 959,
      "vent": 960,
      "Ġchild": 961,
      "Ġlong": 962,
      "Ġway": 963,
      "Ġdet": 964,
      "ps": 965,
      "Ġhist": 966,
      "ron": 967,
      "Ġafter": 968,
      "led": 969,
      "Ġfun": 970,
      "ata": 971,
      "Ġshe": 972,
      "ages": 973,
      "Ġent": 974,
      "ĠIf": 975,
      "Ġmake": 976,
      "ized": 977,
      "ĠCom": 978,
      "ĠThey": 979,
      "ection": 980,
      "Ġcomple": 981,
      "Ġgra": 982,
      "ĠâĢ¢": 983,
      "Ġsom": 984,
      "ds": 985,
      "Ġlar": 986,
      "Ġpartic": 987,
      "Ġfound": 988,
      "Ġ18": 989,
      "ern": 990,
      "Ġcount": 991,
      "ĠAmeric": 992,
      "Ġback": 993,
      "Ġboth": 994,
      "Ġusing": 995,
      "Ġass": 996,
      "Ġext": 997,
      "ĠSo": 998,
      ".\"": 999,
      "Ġunderstand": 1000,
      "Ġcar": 1001,
      "ather": 1002,
      "Ġsec": 1003,
      "Ġloc": 1004,
      "arm": 1005,
      "ices": 1006,
      "Ġbeing": 1007,
      "Ġeffect": 1008,
      "con": 1009,
      "Ġdoes": 1010,
      "ĠBut": 1011,
      "tle": 1012,
      "ef": 1013,
      "ĠPro": 1014,
      "Ġ6": 1015,
      "Ġprocess": 1016,
      "Ġpat": 1017,
      "Ġmed": 1018,
      "Ġinform": 1019,
      "Ġvery": 1020,
      "ved": 1021,
      "ivid": 1022,
      "ck": 1023,
      "Ġrese": 1024,
      "Ġlife": 1025,
      "Ġmuch": 1026,
      "Ġfam": 1027,
      "Ġown": 1028,
      "Ġfact": 1029,
      "Ġright": 1030,
      "iew": 1031,
      "Ġfollow": 1032,
      "Ġchar": 1033,
      "Ġincre": 1034,
      "Ġlead": 1035,
      "Ġed": 1036,
      "Ġ201": 1037,
      "Ġsk": 1038,
      "ty": 1039,
      "Ġcalled": 1040,
      "Ġconc": 1041,
      "Ġhealth": 1042,
      "gg": 1043,
      "Ġpower": 1044,
      "ential": 1045,
      "Ġrequ": 1046,
      "Ġcap": 1047,
      "ave": 1048,
      "Ġwithin": 1049,
      "Ġprog": 1050,
      "Ġmade": 1051,
      "cient": 1052,
      "Ġread": 1053,
      "Ġbefore": 1054,
      "Ġresult": 1055,
      "Ġhim": 1056,
      "Ġexample": 1057,
      "Ġmight": 1058,
      "ted": 1059,
      "Ġfind": 1060,
      "ety": 1061,
      "Ġsame": 1062,
      "ork": 1063,
      "Ġdep": 1064,
      "ĠBy": 1065,
      "iel": 1066,
      "ves": 1067,
      "ars": 1068,
      "Ġagain": 1069,
      "ving": 1070,
      "Ġcur": 1071,
      "iron": 1072,
      "ĠAr": 1073,
      "Ġperson": 1074,
      "Ġaut": 1075,
      "eng": 1076,
      "Ġbel": 1077,
      "uss": 1078,
      "Ġmem": 1079,
      "dition": 1080,
      "Ġend": 1081,
      "ĠThese": 1082,
      "chool": 1083,
      "Ġlit": 1084,
      "vern": 1085,
      "ody": 1086,
      "self": 1087,
      "Ġgreat": 1088,
      "Ġaround": 1089,
      "Ġpub": 1090,
      "ases": 1091,
      "Ġoften": 1092,
      "Ġmin": 1093,
      "Ġgrow": 1094,
      "inal": 1095,
      "Ġmain": 1096,
      "Ġgrou": 1097,
      "Ġdown": 1098,
      "ute": 1099,
      "ands": 1100,
      "Ġsmall": 1101,
      "Ġpop": 1102,
      "ax": 1103,
      "Ġthough": 1104,
      "ering": 1105,
      "Ġappro": 1106,
      "nce": 1107,
      "Ġcult": 1108,
      "Ġwrit": 1109,
      "Ġallow": 1110,
      "Ġsaid": 1111,
      "Ġcor": 1112,
      "ien": 1113,
      "Ġcontin": 1114,
      "ix": 1115,
      "Ġdid": 1116,
      "Ġshow": 1117,
      "ĠYou": 1118,
      "akes": 1119,
      "Ġsol": 1120,
      "ince": 1121,
      "Ġmat": 1122,
      "ality": 1123,
      "Ġmon": 1124,
      "Ġthink": 1125,
      "ined": 1126,
      "Ġresp": 1127,
      "ient": 1128,
      "ement": 1129,
      "hem": 1130,
      "ĠAnd": 1131,
      "ĠThere": 1132,
      "Ġclass": 1133,
      "any": 1134,
      "Ġequ": 1135,
      "Ġbo": 1136,
      "Ġplay": 1137,
      "ale": 1138,
      "ier": 1139,
      "ross": 1140,
      "Ġposs": 1141,
      "Ġdata": 1142,
      "io": 1143,
      "eg": 1144,
      "Ġgl": 1145,
      "Ġbr": 1146,
      "itions": 1147,
      "iving": 1148,
      "Ġpract": 1149,
      "Ġconsid": 1150,
      "read": 1151,
      "und": 1152,
      "Ġconf": 1153,
      "ex": 1154,
      "ock": 1155,
      "ĠEx": 1156,
      "air": 1157,
      "Ġinformation": 1158,
      "Ġ7": 1159,
      "ories": 1160,
      "cing": 1161,
      "ivers": 1162,
      "Ġvis": 1163,
      "Ġnow": 1164,
      "Ġ[": 1165,
      "ters": 1166,
      "ĠWhen": 1167,
      "ah": 1168,
      "Ġproble": 1169,
      "Ġdesign": 1170,
      "ven": 1171,
      "imate": 1172,
      "ared": 1173,
      "âĢĶ": 1174,
      "Ġimportant": 1175,
      "viron": 1176,
      "Ġquest": 1177,
      "Ġhuman": 1178,
      "ĠTo": 1179,
      "The": 1180,
      "Ġgood": 1181,
      "ividual": 1182,
      "ergy": 1183,
      "Ġless": 1184,
      "Ġeng": 1185,
      "Ġprot": 1186,
      "ĠAd": 1187,
      "Ġstart": 1188,
      "ional": 1189,
      "Ġlook": 1190,
      "Ġlet": 1191,
      "Ġgu": 1192,
      "Ġconst": 1193,
      "ĠInd": 1194,
      "Ġcontro": 1195,
      "Ġlevel": 1196,
      "Ġorgan": 1197,
      "Ġop": 1198,
      "day": 1199,
      "ury": 1200,
      "irect": 1201,
      "cl": 1202,
      "ital": 1203,
      "Ġlearn": 1204,
      "Ġnumber": 1205,
      "Ġ10": 1206,
      "Ġadv": 1207,
      ",\"": 1208,
      "Ġindividual": 1209,
      "ets": 1210,
      "Ġprovid": 1211,
      "ished": 1212,
      "Ġocc": 1213,
      "Ġav": 1214,
      "000": 1215,
      "Ġser": 1216,
      "Ġday": 1217,
      "ization": 1218,
      "Ġthree": 1219,
      "Ġplan": 1220,
      "Ġ8": 1221,
      "Ġtake": 1222,
      "ĠNew": 1223,
      "angu": 1224,
      "ĠIs": 1225,
      "Ġelect": 1226,
      "Ġbeh": 1227,
      "Ġcell": 1228,
      "ĠWhat": 1229,
      "Ġmust": 1230,
      "Ġfood": 1231,
      "rent": 1232,
      "Ġserv": 1233,
      "way": 1234,
      "ral": 1235,
      "por": 1236,
      "Ġanother": 1237,
      "omen": 1238,
      "Ġsupport": 1239,
      "ining": 1240,
      "Ġest": 1241,
      "els": 1242,
      "Ġstudy": 1243,
      "Ġcommon": 1244,
      "ĠSe": 1245,
      "ĠAt": 1246,
      "acter": 1247,
      "less": 1248,
      "Ġca": 1249,
      "Ġret": 1250,
      "Ġtest": 1251,
      "erest": 1252,
      "bers": 1253,
      "ĠHowever": 1254,
      "ulation": 1255,
      "com": 1256,
      "ense": 1257,
      "der": 1258,
      "Ġcreat": 1259,
      "iven": 1260,
      "Ġ$": 1261,
      "Ġgovern": 1262,
      "Ġcare": 1263,
      "Ġreal": 1264,
      "Ġinvol": 1265,
      "up": 1266,
      "Ġident": 1267,
      "Ġpot": 1268,
      "Ġdem": 1269,
      "Ġprom": 1270,
      "Ġschool": 1271,
      "ertain": 1272,
      "oun": 1273,
      "the": 1274,
      "Ġpass": 1275,
      "ination": 1276,
      "Ġ@": 1277,
      "Ġide": 1278,
      "Ġpos": 1279,
      "Ġknown": 1280,
      "oh": 1281,
      "ains": 1282,
      "lear": 1283,
      "ĠSp": 1284,
      "ĠIm": 1285,
      "ull": 1286,
      "Ġmet": 1287,
      "Ġcour": 1288,
      "ivity": 1289,
      "ived": 1290,
      "ired": 1291,
      "Ġstill": 1292,
      "rodu": 1293,
      "itive": 1294,
      "vironment": 1295,
      "Ġbelie": 1296,
      "ething": 1297,
      "Ġmus": 1298,
      "19": 1299,
      "Ġaff": 1300,
      "ĠOne": 1301,
      "Ġbuild": 1302,
      "Ġstudents": 1303,
      "Ġele": 1304,
      "ethod": 1305,
      "raph": 1306,
      ".,": 1307,
      "Ġconn": 1308,
      "Ġlarge": 1309,
      "ources": 1310,
      "Ġ9": 1311,
      "Ġwithout": 1312,
      "ran": 1313,
      "Ġtyp": 1314,
      "Ġwant": 1315,
      "**": 1316,
      "Ġdel": 1317,
      "ĠSh": 1318,
      "Ġmean": 1319,
      "Ġchang": 1320,
      "ead": 1321,
      "Ġpar": 1322,
      "alk": 1323,
      "aj": 1324,
      "Ġsl": 1325,
      "Ġsomething": 1326,
      "ify": 1327,
      "ability": 1328,
      "ians": 1329,
      "aterial": 1330,
      "ected": 1331,
      "Ġsignific": 1332,
      "Ġchildren": 1333,
      "Ġincluding": 1334,
      "lish": 1335,
      "Ġvarious": 1336,
      "ently": 1337,
      "Ġopp": 1338,
      "ends": 1339,
      "ĠEng": 1340,
      "ience": 1341,
      "Ġlangu": 1342,
      "ger": 1343,
      "iod": 1344,
      "ccess": 1345,
      "Ġredu": 1346,
      "Ġtem": 1347,
      "Ġbody": 1348,
      "Ġtreat": 1349,
      "Ġinterest": 1350,
      "uro": 1351,
      "Ġlight": 1352,
      "over": 1353,
      "ash": 1354,
      "Ġdesc": 1355,
      "ior": 1356,
      "Ġdon": 1357,
      "hers": 1358,
      "ilar": 1359,
      "Ġenergy": 1360,
      "Ġfunction": 1361,
      "Ġagainst": 1362,
      "Ġchange": 1363,
      "ield": 1364,
      "Ġhand": 1365,
      "Ġprof": 1366,
      "rain": 1367,
      "ples": 1368,
      "Ġ0": 1369,
      "conom": 1370,
      "ateg": 1371,
      "cience": 1372,
      "Ġbetter": 1373,
      "Ġplace": 1374,
      "ason": 1375,
      "Ġiss": 1376,
      "Ġtoo": 1377,
      "osed": 1378,
      "Ġresearch": 1379,
      "Ġ`": 1380,
      "az": 1381,
      "orn": 1382,
      "Ġsever": 1383,
      "ique": 1384,
      "ĠDe": 1385,
      "Ġhistory": 1386,
      "to": 1387,
      "Ġrepres": 1388,
      "Ġ**": 1389,
      "Ġmethod": 1390,
      "man": 1391,
      "Ġdr": 1392,
      "Ġhapp": 1393,
      "Ġ199": 1394,
      "ling": 1395,
      "ways": 1396,
      "ouse": 1397,
      "ik": 1398,
      "par": 1399,
      "Ġanim": 1400,
      "Ġphys": 1401,
      "lu": 1402,
      "ote": 1403,
      "Ġ|": 1404,
      "Ġpublic": 1405,
      "Ġamong": 1406,
      "oring": 1407,
      "ner": 1408,
      "sw": 1409,
      "here": 1410,
      "Ġothers": 1411,
      "Ġoper": 1412,
      "Ġmove": 1413,
      "ries": 1414,
      "Ġlaw": 1415,
      "Ġmaterial": 1416,
      "ological": 1417,
      "ances": 1418,
      "ret": 1419,
      "irc": 1420,
      "Ġbecome": 1421,
      "soci": 1422,
      "Ġchall": 1423,
      "line": 1424,
      "Ġstate": 1425,
      "Ġstand": 1426,
      "ĠAmerican": 1427,
      "Ġleg": 1428,
      "ode": 1429,
      "ember": 1430,
      "Ġeas": 1431,
      "ision": 1432,
      "be": 1433,
      "Ġdirect": 1434,
      "Ġpoint": 1435,
      "ration": 1436,
      "ĠBe": 1437,
      "Ġris": 1438,
      "Ġcaus": 1439,
      "Ġanal": 1440,
      "ats": 1441,
      "atic": 1442,
      "ium": 1443,
      "Ġseveral": 1444,
      "orts": 1445,
      "ĠQ": 1446,
      "Ġperform": 1447,
      "Ġtoget": 1448,
      "Ġtogether": 1449,
      "ert": 1450,
      "Ġimm": 1451,
      "Ġsocial": 1452,
      "de": 1453,
      "Ġpur": 1454,
      "iversity": 1455,
      "Ġunt": 1456,
      "Ġsay": 1457,
      "mb": 1458,
      "Ġmil": 1459,
      "pr": 1460,
      "Ġenvironment": 1461,
      "Ġsit": 1462,
      "Ġthings": 1463,
      "outh": 1464,
      "ug": 1465,
      "Ġter": 1466,
      "Ġfac": 1467,
      "urther": 1468,
      "ĠThat": 1469,
      "ording": 1470,
      "10": 1471,
      "Ġmeans": 1472,
      "Ġfew": 1473,
      "Ġsoci": 1474,
      "Ġbre": 1475,
      "Ġwar": 1476,
      "ention": 1477,
      "orth": 1478,
      "ames": 1479,
      "Ġcreate": 1480,
      "ĠPh": 1481,
      "agn": 1482,
      "Ġparticular": 1483,
      "ids": 1484,
      "Ġobject": 1485,
      "Ġopen": 1486,
      "Ġfeel": 1487,
      "cent": 1488,
      "Ġorig": 1489,
      "Ġmar": 1490,
      "Ġpresent": 1491,
      "iness": 1492,
      "Ġeduc": 1493,
      "ption": 1494,
      "Ġland": 1495,
      "Ġbas": 1496,
      "Ġnear": 1497,
      "oms": 1498,
      "atural": 1499,
      "20": 1500,
      "Ġdise": 1501,
      "Ġstruct": 1502,
      "Ġcrit": 1503,
      "Ġrest": 1504,
      "Ġproper": 1505,
      "Ġimpro": 1506,
      "ental": 1507,
      "olution": 1508,
      "Ġel": 1509,
      "rop": 1510,
      "ograph": 1511,
      "Ġbased": 1512,
      "Ġess": 1513,
      "ton": 1514,
      "Ġfri": 1515,
      "Ġvari": 1516,
      "ole": 1517,
      "Ġdue": 1518,
      "Ġmult": 1519,
      "Ġmark": 1520,
      "__": 1521,
      "reen": 1522,
      "verse": 1523,
      "Ġkeep": 1524,
      "ĠPl": 1525,
      "Ġhere": 1526,
      "elf": 1527,
      "Ġve": 1528,
      "eral": 1529,
      "ills": 1530,
      "Ġcontrol": 1531,
      "Ġcomput": 1532,
      "gin": 1533,
      "Ġeconom": 1534,
      "Ġalong": 1535,
      "Ġhy": 1536,
      "Ġcomplex": 1537,
      ".âĢĿ": 1538,
      "Ġlearning": 1539,
      "Ġseem": 1540,
      "bs": 1541,
      "ogn": 1542,
      "Ġenc": 1543,
      "Ġscient": 1544,
      "Ġmeas": 1545,
      "ĠCan": 1546,
      "Ġfin": 1547,
      "Ġben": 1548,
      "Ġtop": 1549,
      "Ġsuccess": 1550,
      "Ġgroup": 1551,
      "ĠRes": 1552,
      "Ġsecond": 1553,
      "ified": 1554,
      "ĠOn": 1555,
      "ocus": 1556,
      "Ġsignificant": 1557,
      "Ġtoward": 1558,
      "Ġcertain": 1559,
      "Ġinclude": 1560,
      "Ġbro": 1561,
      "Ġdevelopment": 1562,
      "ĠWith": 1563,
      "Ġfamily": 1564,
      "Ġtre": 1565,
      "Ġens": 1566,
      "ĠEn": 1567,
      "Ġold": 1568,
      "Ġarea": 1569,
      "Ġauth": 1570,
      "Ġearly": 1571,
      "arent": 1572,
      "ank": 1573,
      "Ġdev": 1574,
      "ator": 1575,
      "Ġlim": 1576,
      "Ġche": 1577,
      "Ġsince": 1578,
      "Ġproduct": 1579,
      "Ġgovernment": 1580,
      "ots": 1581,
      "amp": 1582,
      "rist": 1583,
      "Ġ&": 1584,
      "Ġpolit": 1585,
      "ĠCl": 1586,
      "Ġfore": 1587,
      "Ġwhy": 1588,
      "Ġmaking": 1589,
      "Ġair": 1590,
      "ape": 1591,
      "Ġant": 1592,
      "put": 1593,
      "ource": 1594,
      "Ġsaf": 1595,
      "gen": 1596,
      "Ġnon": 1597,
      "Ġperiod": 1598,
      "Ġcal": 1599,
      "Ġfollowing": 1600,
      "Ġfre": 1601,
      "Ġuntil": 1602,
      "ditions": 1603,
      "ortun": 1604,
      "ĠNow": 1605,
      "Ġdra": 1606,
      "illion": 1607,
      "abor": 1608,
      "Ġlo": 1609,
      "Ġes": 1610,
      "Ġturn": 1611,
      "ware": 1612,
      "ression": 1613,
      "idence": 1614,
      "ajor": 1615,
      "Ġoccur": 1616,
      "Ġ15": 1617,
      "ards": 1618,
      "cer": 1619,
      "ĠSome": 1620,
      "##": 1621,
      "me": 1622,
      "Ġbest": 1623,
      "though": 1624,
      "Ġunderstanding": 1625,
      "Ġacross": 1626,
      "usion": 1627,
      "ĠOr": 1628,
      "Ġlast": 1629,
      "Ġcr": 1630,
      "Ġet": 1631,
      "Ġcome": 1632,
      "Ġrun": 1633,
      "ĠCol": 1634,
      "ication": 1635,
      "Ġstat": 1636,
      "Ġcomb": 1637,
      "Ġprop": 1638,
      "ĠUnited": 1639,
      "Ġhome": 1640,
      "Ġtimes": 1641,
      "ably": 1642,
      "Ġspecific": 1643,
      "Ġpossible": 1644,
      "Ġlanguage": 1645,
      "Ġdiscuss": 1646,
      "Ġlist": 1647,
      "ides": 1648,
      "izing": 1649,
      "Ġprovide": 1650,
      "...": 1651,
      "Ġlocal": 1652,
      "Ġrele": 1653,
      "Ġrepresent": 1654,
      "ĠZ": 1655,
      "Ġname": 1656,
      "ively": 1657,
      "Ġrelations": 1658,
      "Ġline": 1659,
      "ĠComm": 1660,
      "istic": 1661,
      "idd": 1662,
      "ĠEar": 1663,
      "Ġproject": 1664,
      "Ġpain": 1665,
      "Ġupon": 1666,
      "Ġfocus": 1667,
      "uture": 1668,
      "osp": 1669,
      "view": 1670,
      "Ġwomen": 1671,
      "ending": 1672,
      "----------------": 1673,
      "Ġobs": 1674,
      "lished": 1675,
      "Ġprogram": 1676,
      "Ġhead": 1677,
      "app": 1678,
      "Ġsystems": 1679,
      "Ġsing": 1680,
      "sy": 1681,
      "Ġask": 1682,
      "Ġpress": 1683,
      "Ġcurrent": 1684,
      "Ġcase": 1685,
      "Ġlater": 1686,
      "ĠAll": 1687,
      "Ġcharacter": 1688,
      "Ġcontrib": 1689,
      "Ġfar": 1690,
      "Ġfour": 1691,
      "rap": 1692,
      "arc": 1693,
      "urope": 1694,
      "ained": 1695,
      "ĠTe": 1696,
      "ission": 1697,
      "Ġtry": 1698,
      "apter": 1699,
      "âĢĵ": 1700,
      "oks": 1701,
      "Ġmanag": 1702,
      "Ġbus": 1703,
      "etimes": 1704,
      "Ġconsider": 1705,
      "aster": 1706,
      "Ġlow": 1707,
      "Ġspace": 1708,
      "Ġconcept": 1709,
      "Ġinflu": 1710,
      "Ġsimilar": 1711,
      "Ġ12": 1712,
      "Ġspecial": 1713,
      "Ġalways": 1714,
      "ored": 1715,
      "Ġfil": 1716,
      "Ġmen": 1717,
      "Ġtype": 1718,
      "face": 1719,
      "Ġ17": 1720,
      "Ġaccess": 1721,
      "aps": 1722,
      "Ġmov": 1723,
      "agine": 1724,
      "Ġlittle": 1725,
      "ols": 1726,
      "oid": 1727,
      "selves": 1728,
      "Ġtri": 1729,
      "ither": 1730,
      "Ġbi": 1731,
      "Ġblood": 1732,
      "Ġsays": 1733,
      "ights": 1734,
      "Ġansw": 1735,
      "Ġorder": 1736,
      "ploy": 1737,
      "Ġexist": 1738,
      "Ġrad": 1739,
      "etic": 1740,
      "ray": 1741,
      "Ġcho": 1742,
      "ised": 1743,
      "Ġview": 1744,
      "ox": 1745,
      "Ġspecies": 1746,
      "Ġ@-": 1747,
      "Ġmajor": 1748,
      "ĠUniversity": 1749,
      "ately": 1750,
      "Ġgiven": 1751,
      "Ġ@-@": 1752,
      "Ġhard": 1753,
      "Ġassoci": 1754,
      "Ġstrong": 1755,
      "Ġrole": 1756,
      "Ġtru": 1757,
      "ggest": 1758,
      "ope": 1759,
      "Ġgr": 1760,
      "ĠBrit": 1761,
      "oph": 1762,
      "yn": 1763,
      "12": 1764,
      "Ġcountry": 1765,
      "ledge": 1766,
      "ĠEurope": 1767,
      "Ġcirc": 1768,
      "Ġ16": 1769,
      "Ġtoday": 1770,
      "Ġer": 1771,
      "Ġpotential": 1772,
      "thing": 1773,
      "Ġavail": 1774,
      "iting": 1775,
      "Ġexperien": 1776,
      "ued": 1777,
      "Ġcentury": 1778,
      "Ġhig": 1779,
      "work": 1780,
      "ended": 1781,
      "ients": 1782,
      "ument": 1783,
      "ina": 1784,
      "Ġrespons": 1785,
      "Ġchalleng": 1786,
      "Ġpost": 1787,
      "Ġsuggest": 1788,
      "Ġnatural": 1789,
      "Ġput": 1790,
      "Ġdeterm": 1791,
      "aces": 1792,
      "asing": 1793,
      "ĠStates": 1794,
      "Ġproblem": 1795,
      "icle": 1796,
      "Ġ<": 1797,
      "Ġever": 1798,
      "Ġwords": 1799,
      "ĠAf": 1800,
      "Ġquestion": 1801,
      "Ġhistor": 1802,
      "ones": 1803,
      "Ġbenef": 1804,
      "Ġbehav": 1805,
      "aring": 1806,
      "ency": 1807,
      "Ġareas": 1808,
      "ilities": 1809,
      "ĠLe": 1810,
      "ences": 1811,
      "Ġnecess": 1812,
      "br": 1813,
      "Ġimpact": 1814,
      "Ġinvest": 1815,
      "ĠChrist": 1816,
      "Ġrelig": 1817,
      "Ġrece": 1818,
      "Ġappear": 1819,
      "Ġsw": 1820,
      "ales": 1821,
      "Ġshort": 1822,
      "Ġcourse": 1823,
      "Ġcost": 1824,
      "Ġbecame": 1825,
      "oura": 1826,
      "Ġopt": 1827,
      "Ġapplic": 1828,
      "Ġtradition": 1829,
      "Ġpast": 1830,
      "Ġfuture": 1831,
      "ring": 1832,
      "Ġable": 1833,
      "not": 1834,
      "Ġnext": 1835,
      "Ġfree": 1836,
      "orld": 1837,
      "Ġkind": 1838,
      "Ġcells": 1839,
      "Ġill": 1840,
      "ators": 1841,
      "Ġcause": 1842,
      "ths": 1843,
      "Ġreport": 1844,
      "Ġself": 1845,
      "'re": 1846,
      "ane": 1847,
      "Ġaway": 1848,
      "Ġenough": 1849,
      "Ġways": 1850,
      "Ġaddition": 1851,
      "Ġactiv": 1852,
      "Ġintern": 1853,
      "Ġvol": 1854,
      "Ġyoung": 1855,
      "Ġtemper": 1856,
      "Ġleft": 1857,
      "side": 1858,
      "Ġkey": 1859,
      "ĠSc": 1860,
      "Ġstory": 1861,
      "ules": 1862,
      "Ġdisease": 1863,
      "Ġmodern": 1864,
      "ges": 1865,
      "ann": 1866,
      "icult": 1867,
      "oman": 1868,
      "Ġreturn": 1869,
      "ĠAfter": 1870,
      "ird": 1871,
      "ibility": 1872,
      "Ġhaving": 1873,
      "Ġdescrib": 1874,
      "Ġmot": 1875,
      "utions": 1876,
      "ured": 1877,
      "Ġunique": 1878,
      "Ġflow": 1879,
      "Ġrelationship": 1880,
      "by": 1881,
      "Ġamount": 1882,
      "Ġnever": 1883,
      "Ġvalue": 1884,
      "cially": 1885,
      "ĠWhile": 1886,
      "ĠLet": 1887,
      "ohn": 1888,
      "Ġsound": 1889,
      "Ġclear": 1890,
      "ĠInt": 1891,
      "oney": 1892,
      "Ġprin": 1893,
      "oot": 1894,
      "atch": 1895,
      "Ġestab": 1896,
      "let": 1897,
      "ially": 1898,
      "asc": 1899,
      "ĠGerm": 1900,
      "Ġchanges": 1901,
      "11": 1902,
      "aim": 1903,
      "vious": 1904,
      "Ġcommunity": 1905,
      "ĠGod": 1906,
      "Ġshare": 1907,
      "Ġstep": 1908,
      "of": 1909,
      "omes": 1910,
      "Ġbegin": 1911,
      "Ġusually": 1912,
      "Ġprim": 1913,
      "Ġavailable": 1914,
      "Ġmaintain": 1915,
      "Ġmakes": 1916,
      "Ġinit": 1917,
      "use": 1918,
      "Ġworks": 1919,
      "ĠâĢĶ": 1920,
      "une": 1921,
      "obal": 1922,
      "Ġprevent": 1923,
      "aper": 1924,
      "isc": 1925,
      "Ġconnect": 1926,
      "ler": 1927,
      "ged": 1928,
      "illed": 1929,
      "Ġexplore": 1930,
      "Ġnorm": 1931,
      "aves": 1932,
      "Ġemb": 1933,
      "ires": 1934,
      "aut": 1935,
      "Ġside": 1936,
      "Ġbook": 1937,
      "Ġey": 1938,
      "Ġstrateg": 1939,
      "Ġgive": 1940,
      "aken": 1941,
      "ream": 1942,
      "pro": 1943,
      "erc": 1944,
      "Ġproblems": 1945,
      "ĠInst": 1946,
      "iction": 1947,
      "ym": 1948,
      "atures": 1949,
      "Ġthought": 1950,
      "Ġrecord": 1951,
      "Ġhowever": 1952,
      "Ġfurther": 1953,
      "Ġpattern": 1954,
      "Ġpercent": 1955,
      "\".": 1956,
      "ison": 1957,
      "Ġaddress": 1958,
      "Ġresources": 1959,
      "Ġmind": 1960,
      "unk": 1961,
      "Ġvir": 1962,
      "ĠAfric": 1963,
      "Ġindust": 1964,
      "ery": 1965,
      "Ġgoing": 1966,
      "Ġtechnology": 1967,
      "Ġlevels": 1968,
      "Ġheart": 1969,
      "Ġterm": 1970,
      "Ġwhether": 1971,
      "Ġknowledge": 1972,
      "Ġrather": 1973,
      "Ġpred": 1974,
      "ĠII": 1975,
      "ĠWar": 1976,
      "ints": 1977,
      "atives": 1978,
      "Ġindividuals": 1979,
      "Ġthroughout": 1980,
      "Ġauthor": 1981,
      "atory": 1982,
      "Ġlay": 1983,
      "Ġarg": 1984,
      "Ġz": 1985,
      "Ġtypes": 1986,
      "mit": 1987,
      "ney": 1988,
      "val": 1989,
      "Ġclose": 1990,
      "ek": 1991,
      "wh": 1992,
      "Ġground": 1993,
      "ables": 1994,
      "Ġsens": 1995,
      "iver": 1996,
      "ĠShe": 1997,
      "cle": 1998,
      "ĠJohn": 1999,
      "Ġrisk": 2000,
      "ext": 2001,
      "Ġscience": 2002,
      "Ġage": 2003,
      "Ġconditions": 2004,
      "Ġessential": 2005,
      "Ġabove": 2006,
      "lying": 2007,
      "for": 2008,
      "hing": 2009,
      "ibr": 2010,
      "Ġexperience": 2011,
      "ĠEm": 2012,
      "unt": 2013,
      "hern": 2014,
      ",âĢĿ": 2015,
      "plic": 2016,
      "Ġpolic": 2017,
      ".[": 2018,
      "ches": 2019,
      "Ġbig": 2020,
      "Ġnet": 2021,
      "utes": 2022,
      "ĠUS": 2023,
      "min": 2024,
      "ĠBl": 2025,
      "my": 2026,
      "ipp": 2027,
      "ĠEarth": 2028,
      "Ġliter": 2029,
      "Ġprofess": 2030,
      "Ġjour": 2031,
      "Ġgrowth": 2032,
      "Ġtext": 2033,
      "iques": 2034,
      "ont": 2035,
      "Ġdays": 2036,
      "lement": 2037,
      "port": 2038,
      "Ġbusiness": 2039,
      "Ġ11": 2040,
      "alf": 2041,
      "Ġtowards": 2042,
      "Ġcollect": 2043,
      "Ġsingle": 2044,
      "aging": 2045,
      "Ġdifficult": 2046,
      "Ġgroups": 2047,
      "Ġrecogn": 2048,
      "Ġreally": 2049,
      "Ġcame": 2050,
      "ĠMar": 2051,
      "Ġfield": 2052,
      "duct": 2053,
      "Ġdeath": 2054,
      "Ġsum": 2055,
      "Ġplant": 2056,
      "Ġword": 2057,
      "Ġissues": 2058,
      "ĠMay": 2059,
      "Ġhold": 2060,
      "sequ": 2061,
      "Ġtell": 2062,
      "Ġcy": 2063,
      "Ġcoll": 2064,
      "Ġworking": 2065,
      "ilt": 2066,
      "ysis": 2067,
      "ĠMed": 2068,
      "onst": 2069,
      "Ġ198": 2070,
      "50": 2071,
      "augh": 2072,
      "Ġquestions": 2073,
      "ule": 2074,
      "Ġ14": 2075,
      "ising": 2076,
      "Ġphot": 2077,
      "Ġrespect": 2078,
      "enn": 2079,
      "Ġ)": 2080,
      "Ġpolitical": 2081,
      "Ġprob": 2082,
      "ĠDes": 2083,
      "Ġbrain": 2084,
      "Ġopportun": 2085,
      "Ġsomeone": 2086,
      "Ġsurface": 2087,
      "Ġmodel": 2088,
      "Ġmusic": 2089,
      "ites": 2090,
      "like": 2091,
      "acy": 2092,
      "Ġsent": 2093,
      "Ġcomplete": 2094,
      "icient": 2095,
      "ĠMore": 2096,
      "Ġprotect": 2097,
      "Ġteam": 2098,
      "Ġregard": 2099,
      "Ġthemselves": 2100,
      "overed": 2101,
      "lection": 2102,
      "Ġnature": 2103,
      "Ġ+": 2104,
      "Ġ13": 2105,
      "ĠGen": 2106,
      "pecially": 2107,
      "ĠEnglish": 2108,
      "ruction": 2109,
      "Ġbat": 2110,
      "af": 2111,
      "ĠNational": 2112,
      "Ġmembers": 2113,
      "Ġdeep": 2114,
      "ĠCar": 2115,
      "Ġhigher": 2116,
      "yth": 2117,
      "Ġsometimes": 2118,
      "Ġcontain": 2119,
      "chie": 2120,
      "fully": 2121,
      "most": 2122,
      "nces": 2123,
      "ours": 2124,
      "Ġneg": 2125,
      "Ġevent": 2126,
      "Ġeither": 2127,
      "Ġleast": 2128,
      "ĠAct": 2129,
      "ened": 2130,
      "ĠCent": 2131,
      "ley": 2132,
      "Ġliving": 2133,
      "ivil": 2134,
      "Ġresults": 2135,
      "Ġonce": 2136,
      "Ġanimals": 2137,
      "Ġsitu": 2138,
      "Ġchem": 2139,
      "Ġmass": 2140,
      "Ġcountries": 2141,
      "Ġbegan": 2142,
      "ival": 2143,
      "ĠAb": 2144,
      "Ġaspect": 2145,
      "oint": 2146,
      "Ġdig": 2147,
      "Ġcity": 2148,
      "Ġemploy": 2149,
      "Ġvers": 2150,
      "Ġpopulation": 2151,
      "Ġsimple": 2152,
      "ĠWorld": 2153,
      "Ġfig": 2154,
      "18": 2155,
      "Ġrequire": 2156,
      "Ġplants": 2157,
      "Ġinstead": 2158,
      "Ġprinci": 2159,
      "ulations": 2160,
      "Ġobserv": 2161,
      "Ġdam": 2162,
      "Ġseen": 2163,
      "Ġdom": 2164,
      "Ġneeds": 2165,
      "Ġreason": 2166,
      "inary": 2167,
      "Ġyet": 2168,
      "Ġmillion": 2169,
      "Ġsuper": 2170,
      "het": 2171,
      "Ġmeaning": 2172,
      "Ġeducation": 2173,
      "Ġgeneral": 2174,
      "apt": 2175,
      "Ġfund": 2176,
      "Ġfull": 2177,
      "Ġevidence": 2178,
      "itud": 2179,
      "Ġlikely": 2180,
      "Ġarr": 2181,
      "ript": 2182,
      "ĠAm": 2183,
      "Ġconsum": 2184,
      "iet": 2185,
      "ung": 2186,
      "Ġpersonal": 2187,
      "Ġfrequ": 2188,
      "aries": 2189,
      "ĠThrough": 2190,
      "Ġsun": 2191,
      "ification": 2192,
      "Ġresearc": 2193,
      "Ġtreatment": 2194,
      "ĠPr": 2195,
      "erence": 2196,
      "ĠCont": 2197,
      "Ġphysical": 2198,
      "iation": 2199,
      "Ġaccount": 2200,
      "Ġ/": 2201,
      "Ġsubject": 2202,
      "ĠGo": 2203,
      "Ã©": 2204,
      "ĠJew": 2205,
      "Ġsuff": 2206,
      "Ġfriends": 2207,
      "ĠâĢĺ": 2208,
      "arr": 2209,
      "iol": 2210,
      "sych": 2211,
      "chan": 2212,
      "sp": 2213,
      "Ġwind": 2214,
      "Ġactually": 2215,
      "Ġinteg": 2216,
      "Ġpopular": 2217,
      "Ġskills": 2218,
      "Ġanswer": 2219,
      "Ġcomes": 2220,
      "ĠUnder": 2221,
      "amm": 2222,
      "Ġoffic": 2223,
      "Ġentire": 2224,
      "ĠNo": 2225,
      "Ġdeg": 2226,
      "Ġinteract": 2227,
      "Ġlive": 2228,
      "edi": 2229,
      "Ġmic": 2230,
      "Ġassociated": 2231,
      "ĠGe": 2232,
      "Ġmoney": 2233,
      "ĠDr": 2234,
      "Ġidea": 2235,
      "eter": 2236,
      "Ġsociety": 2237,
      "Ġparent": 2238,
      "anced": 2239,
      "Ġpie": 2240,
      "ĠX": 2241,
      "Ġaffect": 2242,
      "ĠMe": 2243,
      "lo": 2244,
      "Ġitself": 2245,
      "oon": 2246,
      "Ġdest": 2247,
      "Ġespecially": 2248,
      "Ġsym": 2249,
      "rect": 2250,
      "ae": 2251,
      "Ġabs": 2252,
      "Ġeffects": 2253,
      "Ġparticip": 2254,
      "epend": 2255,
      "Ġbir": 2256,
      "Ġ--": 2257,
      "Ġfamil": 2258,
      "ips": 2259,
      "):": 2260,
      "Ġge": 2261,
      "Ġsize": 2262,
      "ĠRep": 2263,
      "omm": 2264,
      "Ġneeded": 2265,
      "Ġsure": 2266,
      "Ġintrodu": 2267,
      "Ġparts": 2268,
      "Ġincrease": 2269,
      "Ġimprove": 2270,
      "13": 2271,
      "ĠKe": 2272,
      "ĠSy": 2273,
      "Ġdetail": 2274,
      "amed": 2275,
      "Ġwhite": 2276,
      "Ġachie": 2277,
      "aching": 2278,
      "Ġcreated": 2279,
      "ott": 2280,
      "Ġtook": 2281,
      "Ġsense": 2282,
      "Ġlower": 2283,
      "Ġindic": 2284,
      "Ġevents": 2285,
      "Ġemot": 2286,
      "Ġteac": 2287,
      "Ġcomputer": 2288,
      "Ġfall": 2289,
      "ĠHis": 2290,
      "Ġsubst": 2291,
      "Ġpractice": 2292,
      "rict": 2293,
      "Ġglobal": 2294,
      "Ġengine": 2295,
      "ump": 2296,
      "ready": 2297,
      "Ġeveryone": 2298,
      "Ġconcern": 2299,
      "Ġtrue": 2300,
      "come": 2301,
      "ĠBritish": 2302,
      "ĠApp": 2303,
      "fer": 2304,
      "Ġport": 2305,
      "200": 2306,
      "Ġtalk": 2307,
      "Ġstories": 2308,
      "ĠNorth": 2309,
      "sh": 2310,
      "Ġelements": 2311,
      "Ġmess": 2312,
      "rams": 2313,
      "Ġbuilding": 2314,
      "Ġfactors": 2315,
      "ĠHist": 2316,
      "pos": 2317,
      "urch": 2318,
      "Ġsepar": 2319,
      "Ġrange": 2320,
      "Ġver": 2321,
      "lex": 2322,
      "Ġreact": 2323,
      "Ġtechniques": 2324,
      "ening": 2325,
      "go": 2326,
      "Ġ^": 2327,
      "rel": 2328,
      "Ġculture": 2329,
      "Ġsource": 2330,
      "Ġcode": 2331,
      "Ġquick": 2332,
      "verage": 2333,
      "Ġhouse": 2334,
      "Ġ:": 2335,
      "lt": 2336,
      "mber": 2337,
      "Ġcases": 2338,
      "itary": 2339,
      "ĠFrom": 2340,
      ".)": 2341,
      "ises": 2342,
      "Ġbar": 2343,
      "ctions": 2344,
      "Ġblack": 2345,
      "Ġmeet": 2346,
      "ĠTr": 2347,
      "pite": 2348,
      "'ll": 2349,
      "eds": 2350,
      "ĠStud": 2351,
      "Ġwhole": 2352,
      "Ġrights": 2353,
      "Ġ197": 2354,
      "ply": 2355,
      "ĠAmerica": 2356,
      "light": 2357,
      "Ġexc": 2358,
      "Ġred": 2359,
      "Ġaccording": 2360,
      "Ġcommunities": 2361,
      "Ġmaterials": 2362,
      "Ġloss": 2363,
      "Ġstudies": 2364,
      "imately": 2365,
      "rate": 2366,
      "erous": 2367,
      "Ġremain": 2368,
      "bon": 2369,
      "Ġcannot": 2370,
      "Ġtheory": 2371,
      "NA": 2372,
      "Ġchallenges": 2373,
      "ĠSu": 2374,
      "Ġfail": 2375,
      "ĠMany": 2376,
      "Ġalready": 2377,
      "Ġallows": 2378,
      "Ġmor": 2379,
      "Ġtraditional": 2380,
      "Ġinn": 2381,
      "ĠMan": 2382,
      "Ġactivities": 2383,
      "eb": 2384,
      "Ġ30": 2385,
      "apan": 2386,
      "iddle": 2387,
      "ush": 2388,
      "Ġur": 2389,
      "porary": 2390,
      "Ġmethods": 2391,
      "rug": 2392,
      "Ġcru": 2393,
      "ony": 2394,
      "Ġcut": 2395,
      "Ġcle": 2396,
      "dom": 2397,
      "Ġvalues": 2398,
      "Ġcultural": 2399,
      "Ġmatter": 2400,
      "acks": 2401,
      "iment": 2402,
      "Ġlives": 2403,
      "tal": 2404,
      "Ġfive": 2405,
      "ĠPe": 2406,
      "Ġcapt": 2407,
      "ese": 2408,
      "ils": 2409,
      "elling": 2410,
      "ask": 2411,
      "Ġpay": 2412,
      "rew": 2413,
      "Ġclaim": 2414,
      "Ġexpress": 2415,
      "ze": 2416,
      "aced": 2417,
      "Ġaccept": 2418,
      "Ġrepl": 2419,
      "nal": 2420,
      "ried": 2421,
      "ging": 2422,
      "Ġnecessary": 2423,
      "Ġmultip": 2424,
      "Ġdone": 2425,
      "rench": 2426,
      "Ġemerg": 2427,
      "15": 2428,
      "ided": 2429,
      "Ġdoc": 2430,
      "Ġhistorical": 2431,
      "ĠGu": 2432,
      "Ġflu": 2433,
      "ops": 2434,
      "hib": 2435,
      "Ġpath": 2436,
      "Ġheav": 2437,
      "sc": 2438,
      "Ġforms": 2439,
      "ĠYour": 2440,
      "Ġpressure": 2441,
      "Ġdraw": 2442,
      "Ġnational": 2443,
      "Ġconsidered": 2444,
      "erve": 2445,
      "Ġunit": 2446,
      "Ch": 2447,
      "iam": 2448,
      "empt": 2449,
      "rown": 2450,
      "Ġaction": 2451,
      "ched": 2452,
      "Ġmach": 2453,
      "reng": 2454,
      "Ġincreasing": 2455,
      "In": 2456,
      "Ġrev": 2457,
      "Ġsat": 2458,
      "Ġinstance": 2459,
      "Ġtaken": 2460,
      "Ġhelps": 2461,
      "Ġx": 2462,
      "Ġcritical": 2463,
      "avor": 2464,
      "ĠImagine": 2465,
      "Ġexperiences": 2466,
      "Ġep": 2467,
      "aling": 2468,
      "inating": 2469,
      "ĠJapan": 2470,
      "ĠPol": 2471,
      "Ġcompon": 2472,
      "yond": 2473,
      "ĠAcc": 2474,
      "Ġdeveloped": 2475,
      "||": 2476,
      "Ġbreak": 2477,
      "Ġproduction": 2478,
      "Ġencoura": 2479,
      "alt": 2480,
      "Ġresearchers": 2481,
      "standing": 2482,
      "Ġstates": 2483,
      "Ġemp": 2484,
      "uted": 2485,
      "ĠYork": 2486,
      "14": 2487,
      "reg": 2488,
      "ĠFirst": 2489,
      "Ġpaper": 2490,
      "Ġhalf": 2491,
      "Ġincreased": 2492,
      "fact": 2493,
      "Ġbehavior": 2494,
      "ming": 2495,
      "ĠCal": 2496,
      "Ġcra": 2497,
      "uth": 2498,
      "ĠDo": 2499,
      "Ġmechan": 2500,
      "Ġtravel": 2501,
      "Ġarch": 2502,
      "Ġcolor": 2503,
      "ĠQu": 2504,
      "Ġheat": 2505,
      "Ġlab": 2506,
      "Ġann": 2507,
      "Ġcat": 2508,
      "ster": 2509,
      "Ġcreating": 2510,
      "ront": 2511,
      "ĠPer": 2512,
      "Ġlove": 2513,
      "Ġsurround": 2514,
      "Ġmarket": 2515,
      "Ġreflect": 2516,
      "uel": 2517,
      "ĠCanad": 2518,
      "elt": 2519,
      "Ġsex": 2520,
      "Ġstructure": 2521,
      "ublic": 2522,
      "Ġgame": 2523,
      "Ġpositive": 2524,
      "Ġeconomic": 2525,
      "reci": 2526,
      "rated": 2527,
      "Ġcompet": 2528,
      "urity": 2529,
      "uck": 2530,
      "ĠSouth": 2531,
      "aches": 2532,
      "Ġactivity": 2533,
      "Ġmom": 2534,
      "Ġsoft": 2535,
      "Ġi": 2536,
      "Ġconsist": 2537,
      "ulate": 2538,
      "eed": 2539,
      "bo": 2540,
      "ĠCons": 2541,
      "uments": 2542,
      "Ġla": 2543,
      "Ġapproach": 2544,
      "Ġpict": 2545,
      "Ġspir": 2546,
      "Ġwide": 2547,
      "Ġterms": 2548,
      "Ġtar": 2549,
      "Ġnav": 2550,
      "joy": 2551,
      "Ġharm": 2552,
      "Ġoriginal": 2553,
      "ĠHere": 2554,
      "Ġtools": 2555,
      "Ġhumans": 2556,
      "aving": 2557,
      "Ġpractices": 2558,
      "ĠIntern": 2559,
      "Ġproduce": 2560,
      "Ġrate": 2561,
      "Ġwin": 2562,
      "ender": 2563,
      "reme": 2564,
      "Ġstreng": 2565,
      "yle": 2566,
      "Ġtemperature": 2567,
      "ĠSim": 2568,
      "Ġpriv": 2569,
      "Ġbehind": 2570,
      "Ġcust": 2571,
      "Ġclimate": 2572,
      "Ġprovides": 2573,
      "ĠAlthough": 2574,
      "orpor": 2575,
      "ĠTra": 2576,
      "Ġled": 2577,
      "ios": 2578,
      "Ġprote": 2579,
      "Ġbur": 2580,
      "tt": 2581,
      "arily": 2582,
      "Ġnumbers": 2583,
      "Ġcontinue": 2584,
      "Ġcop": 2585,
      "ma": 2586,
      "Ġforce": 2587,
      "Ġtaking": 2588,
      "ift": 2589,
      "Ġensure": 2590,
      "estern": 2591,
      "vere": 2592,
      "Ġscientists": 2593,
      "Ġrequired": 2594,
      "Ġposition": 2595,
      "Ġthing": 2596,
      "earch": 2597,
      "Ġsimply": 2598,
      "Ġwond": 2599,
      "Ġut": 2600,
      "Ġdemonst": 2601,
      "Ġarticle": 2602,
      "Ġregion": 2603,
      "ume": 2604,
      "Ġability": 2605,
      "Ġremember": 2606,
      "ober": 2607,
      "Ġdiv": 2608,
      "ww": 2609,
      "Ġ196": 2610,
      "Ġdeb": 2611,
      "ĠFrench": 2612,
      "30": 2613,
      "Ġhor": 2614,
      "Ġbelow": 2615,
      "Ġnut": 2616,
      "Ġimage": 2617,
      "ĠKing": 2618,
      "ores": 2619,
      "Ġstress": 2620,
      "Ġsurv": 2621,
      "Ġalmost": 2622,
      "Ġenvironmental": 2623,
      "Ġparticularly": 2624,
      "Ġrelated": 2625,
      "Ġbring": 2626,
      "Ġdoct": 2627,
      "Ġdoing": 2628,
      "ĠSection": 2629,
      "Ġanalysis": 2630,
      "Ġmeasure": 2631,
      "Ġdoesn": 2632,
      "ror": 2633,
      "Ġimplement": 2634,
      "Ġlog": 2635,
      "Ġbal": 2636,
      "ground": 2637,
      "Ġskin": 2638,
      "ĠAust": 2639,
      "Ġshap": 2640,
      "inally": 2641,
      "Ġlot": 2642,
      "istance": 2643,
      "abit": 2644,
      "know": 2645,
      "hel": 2646,
      "ows": 2647,
      "ĠUs": 2648,
      "new": 2649,
      "ached": 2650,
      "Ġshows": 2651,
      "Ġprevious": 2652,
      "Ġsite": 2653,
      "Ġfire": 2654,
      "hold": 2655,
      "Ġinsp": 2656,
      "Ġsqu": 2657,
      "Ġlands": 2658,
      "isions": 2659,
      "Ġstandard": 2660,
      "17": 2661,
      "Ġpoints": 2662,
      "rought": 2663,
      "part": 2664,
      "Ġproducts": 2665,
      "Ġbuilt": 2666,
      "rim": 2667,
      "16": 2668,
      "Ġconduct": 2669,
      "ĠEd": 2670,
      "ĠPres": 2671,
      "Ġface": 2672,
      "Ġaud": 2673,
      "Ġmedical": 2674,
      "ee": 2675,
      "yl": 2676,
      "Ġ\\": 2677,
      "Ġgreater": 2678,
      "ĠMost": 2679,
      "Ġaltern": 2680,
      "Ġdistrib": 2681,
      "Ġfish": 2682,
      "Ġminim": 2683,
      "Ġmultiple": 2684,
      "umb": 2685,
      "Ġappreci": 2686,
      "Ġmagn": 2687,
      "Ġenjoy": 2688,
      "Ġeth": 2689,
      "urs": 2690,
      "ene": 2691,
      "leep": 2692,
      "Ġwritten": 2693,
      "Ġquality": 2694,
      "Ġcancer": 2695,
      "Ġbroad": 2696,
      "uable": 2697,
      "Ġslow": 2698,
      "Ġenh": 2699,
      "ĠArt": 2700,
      "emporary": 2701,
      "Ġce": 2702,
      "ĠRuss": 2703,
      "Ġavoid": 2704,
      "Ġpatterns": 2705,
      "ĠPart": 2706,
      "Ġexact": 2707,
      "ĠRec": 2708,
      "Ġstarted": 2709,
      "rand": 2710,
      "itution": 2711,
      "Ġexerc": 2712,
      "ĠJust": 2713,
      "Ġoutside": 2714,
      "Ġinvolved": 2715,
      "ĠSec": 2716,
      "Ġlate": 2717,
      "Ġones": 2718,
      "isms": 2719,
      "itation": 2720,
      "Ġmanagement": 2721,
      "fect": 2722,
      "Ġviol": 2723,
      "Ġbeaut": 2724,
      "Ġreligious": 2725,
      "Ġdesigned": 2726,
      "Ġbelieve": 2727,
      "ĠÂ": 2728,
      "ems": 2729,
      "St": 2730,
      "mon": 2731,
      "ptoms": 2732,
      "Ġcoun": 2733,
      "ister": 2734,
      "ĠDuring": 2735,
      "med": 2736,
      "ĠComp": 2737,
      "ensive": 2738,
      "Ġri": 2739,
      "Ġbeyond": 2740,
      "cies": 2741,
      "ĠPre": 2742,
      "Ġlink": 2743,
      "ĠNot": 2744,
      "Ġuses": 2745,
      "Ġfost": 2746,
      "onse": 2747,
      "Ġrelative": 2748,
      "bit": 2749,
      "Ġfem": 2750,
      "ĠCo": 2751,
      "Ġearth": 2752,
      "Ġattempt": 2753,
      "Ġjo": 2754,
      "Ġinterp": 2755,
      "Ġsources": 2756,
      "Ġoffer": 2757,
      "Ġeffective": 2758,
      "Ġsafe": 2759,
      "Ġ100": 2760,
      "Ġexploring": 2761,
      "Ġearl": 2762,
      "haps": 2763,
      "igation": 2764,
      "Ġonline": 2765,
      "Ġwarm": 2766,
      "Ġseries": 2767,
      "Ġsix": 2768,
      "Ġleading": 2769,
      "Ġ``": 2770,
      "Ġinside": 2771,
      "Ġaim": 2772,
      "play": 2773,
      "Ġcivil": 2774,
      "Ġgas": 2775,
      "Ġetc": 2776,
      "Ġchemical": 2777,
      "Ġidentify": 2778,
      "ography": 2779,
      "Ġsust": 2780,
      "Ġago": 2781,
      "Ġtakes": 2782,
      "Ġmovement": 2783,
      "Ġ194": 2784,
      "Ġthreat": 2785,
      "inct": 2786,
      "Ġoil": 2787,
      "Ġdefin": 2788,
      "Ġfasc": 2789,
      "Ġadult": 2790,
      "iber": 2791,
      "Ġpsych": 2792,
      "Ġattention": 2793,
      "Ġfa": 2794,
      "Ġlonger": 2795,
      "Ġpatients": 2796,
      "Ġjob": 2797,
      "Ġtown": 2798,
      "Ġdrug": 2799,
      "ilos": 2800,
      "right": 2801,
      "itude": 2802,
      "Ġcalc": 2803,
      "ĠPar": 2804,
      "Ġgreen": 2805,
      "Ġprovided": 2806,
      "rie": 2807,
      "Ġvaluable": 2808,
      "izations": 2809,
      "Ġ25": 2810,
      "Ġking": 2811,
      "Ġtransform": 2812,
      "Ġregular": 2813,
      "oll": 2814,
      "ologies": 2815,
      "ĠOther": 2816,
      "oved": 2817,
      "Ġnuc": 2818,
      "Ġelse": 2819,
      "Ġ##": 2820,
      "amin": 2821,
      "Ġste": 2822,
      "ying": 2823,
      "rad": 2824,
      "Ġcaused": 2825,
      "Ġyourself": 2826,
      "ĠNe": 2827,
      "Ġanaly": 2828,
      "Ġperformance": 2829,
      "Ġrefer": 2830,
      "Ġfeed": 2831,
      "Ġreduce": 2832,
      "Ġstop": 2833,
      "Ġancient": 2834,
      "Ġweight": 2835,
      "chol": 2836,
      "Ġprograms": 2837,
      "Ġpromot": 2838,
      "Ġtarget": 2839,
      "Ġrecent": 2840,
      "icles": 2841,
      "ius": 2842,
      "Ġreading": 2843,
      "Ġthinking": 2844,
      "SA": 2845,
      "'ve": 2846,
      "att": 2847,
      "ĠFl": 2848,
      "Ġcommunication": 2849,
      "ously": 2850,
      "Ġstru": 2851,
      "osing": 2852,
      "Ġindepend": 2853,
      "ider": 2854,
      "Ġquant": 2855,
      "Ġmedic": 2856,
      "Ġbasic": 2857,
      "Ġnamed": 2858,
      "Ġbooks": 2859,
      "Ġprobably": 2860,
      "Ġ50": 2861,
      "Ġideas": 2862,
      "Ġselect": 2863,
      "aily": 2864,
      "olec": 2865,
      "Ġservices": 2866,
      "Ġsymb": 2867,
      "ĠMy": 2868,
      "Ġwent": 2869,
      "Ġcontext": 2870,
      "based": 2871,
      "itor": 2872,
      "ĠHer": 2873,
      "more": 2874,
      "oday": 2875,
      "ĠDep": 2876,
      "Ġpowerful": 2877,
      "istics": 2878,
      "Ġlines": 2879,
      "Ġpage": 2880,
      "Ġinnov": 2881,
      "ai": 2882,
      "Ġtax": 2883,
      "Ġcondition": 2884,
      "Ġtotal": 2885,
      "ample": 2886,
      "ĠRem": 2887,
      "Ġwa": 2888,
      "Ġmonths": 2889,
      "Ġcorrect": 2890,
      "king": 2891,
      "Ġcamp": 2892,
      "Ġsea": 2893,
      "Wh": 2894,
      "Ġwild": 2895,
      "Ġpublished": 2896,
      "anks": 2897,
      "Ġord": 2898,
      "ĠOver": 2899,
      "Ġreve": 2900,
      "Ġsoil": 2901,
      "Ġlarger": 2902,
      "order": 2903,
      "Ġimportance": 2904,
      "Ġhours": 2905,
      "Ġcommit": 2906,
      "Ġcross": 2907,
      "Ġbelief": 2908,
      "hens": 2909,
      "overy": 2910,
      "Ġang": 2911,
      "Ġefforts": 2912,
      "Ġfile": 2913,
      "ades": 2914,
      "orks": 2915,
      "Ġleaders": 2916,
      "rast": 2917,
      "Ġbecomes": 2918,
      "Ġwriting": 2919,
      "Ġ```": 2920,
      "rapy": 2921,
      "Ġcrucial": 2922,
      "ief": 2923,
      "Ġvide": 2924,
      "gest": 2925,
      "Ġforces": 2926,
      "Th": 2927,
      "Ġspread": 2928,
      "hood": 2929,
      "Ġec": 2930,
      "ners": 2931,
      "Ġfram": 2932,
      "Ġextra": 2933,
      "Ġopportunities": 2934,
      "rior": 2935,
      "Ġstay": 2936,
      "Ġscientific": 2937,
      "Ġeverything": 2938,
      "erson": 2939,
      "osis": 2940,
      "ength": 2941,
      "Ġcommand": 2942,
      "____": 2943,
      "Ġdiverse": 2944,
      "Ġthus": 2945,
      "ĠThen": 2946,
      "ĠGerman": 2947,
      "astic": 2948,
      "Ġnormal": 2949,
      "ned": 2950,
      "ĠAccording": 2951,
      "cean": 2952,
      "Ġdyn": 2953,
      "ĠEl": 2954,
      "Ġoverall": 2955,
      "ĠHealth": 2956,
      "Ġmag": 2957,
      "Ġaverage": 2958,
      "ields": 2959,
      "edia": 2960,
      "Ġmilitary": 2961,
      "Ġinfluence": 2962,
      "ĠUnderstanding": 2963,
      "Ġcool": 2964,
      "Ġfriend": 2965,
      "omet": 2966,
      "Ġshape": 2967,
      "Ġstrategies": 2968,
      "where": 2969,
      "ties": 2970,
      "ĠRet": 2971,
      "Ġdou": 2972,
      "Ġice": 2973,
      "ĠTw": 2974,
      "inc": 2975,
      "iring": 2976,
      "Ġgenerally": 2977,
      "son": 2978,
      "ĠHave": 2979,
      "Ġcompany": 2980,
      "Ġvisual": 2981,
      "Ġbound": 2982,
      "ĠToday": 2983,
      "Ġsymptoms": 2984,
      "Ġweek": 2985,
      "Ġfeatures": 2986,
      "ĠAnother": 2987,
      "Ġquite": 2988,
      "Ġcheck": 2989,
      "gy": 2990,
      "Ġisn": 2991,
      "Ġaspects": 2992,
      "Ġmount": 2993,
      "Ġprocesses": 2994,
      "pri": 2995,
      "Ġnight": 2996,
      "Ġremains": 2997,
      "Ġanimal": 2998,
      "ĠWhy": 2999,
      "ederal": 3000,
      "roduction": 3001,
      "Ġtur": 3002,
      "Ġfarm": 3003,
      "ĠMod": 3004,
      "Ġgrowing": 3005,
      "Ġbenefits": 3006,
      "pid": 3007,
      "Ġparents": 3008,
      "Ġthous": 3009,
      "Ġperspect": 3010,
      "adem": 3011,
      "odies": 3012,
      "Ġwall": 3013,
      "Ġcarbon": 3014,
      "Ġunc": 3015,
      "Ġresponse": 3016,
      "Ġrequires": 3017,
      "Ġmemory": 3018,
      "acters": 3019,
      "Ġtraining": 3020,
      "ĠJan": 3021,
      "Ġsearch": 3022,
      "Ġchapter": 3023,
      "Ġindustry": 3024,
      "Ġrules": 3025,
      "Ġcontinued": 3026,
      "iter": 3027,
      "Ġquickly": 3028,
      "phas": 3029,
      "olic": 3030,
      "Ġcontent": 3031,
      "Ġissue": 3032,
      "rong": 3033,
      "Ġnetwork": 3034,
      "\",": 3035,
      "ension": 3036,
      "Ġschools": 3037,
      "Ġsold": 3038,
      "Ġattack": 3039,
      "Ġfeet": 3040,
      "Ġmedia": 3041,
      ":**": 3042,
      "acc": 3043,
      "alu": 3044,
      "Ġdifference": 3045,
      "Ġstri": 3046,
      "Ġox": 3047,
      "Ġappl": 3048,
      "Ġdeveloping": 3049,
      "ĠMus": 3050,
      "Ġ#": 3051,
      "Ġalthough": 3052,
      "Ġinj": 3053,
      "Ġhealthy": 3054,
      "Ġlooking": 3055,
      "Ġbit": 3056,
      "Ġasked": 3057,
      "aged": 3058,
      "iar": 3059,
      "pes": 3060,
      "Ġdog": 3061,
      "ads": 3062,
      "ĠWell": 3063,
      "Ġjourney": 3064,
      "Ġfat": 3065,
      "pose": 3066,
      "Ġclean": 3067,
      "rial": 3068,
      "oming": 3069,
      "Ġprimary": 3070,
      "Ġwalk": 3071,
      "minist": 3072,
      "Ġspeak": 3073,
      "Ġcolon": 3074,
      "itute": 3075,
      "Ġincorpor": 3076,
      "Ġcompan": 3077,
      "Ġgot": 3078,
      "ĠWill": 3079,
      "ĠOf": 3080,
      "oles": 3081,
      "ĠEach": 3082,
      "Ġappropri": 3083,
      "ura": 3084,
      "Ġsil": 3085,
      "Ġgain": 3086,
      "Ġlat": 3087,
      "ĠReg": 3088,
      "Ġspirit": 3089,
      "ĠEven": 3090,
      "Ġseems": 3091,
      "ER": 3092,
      "Ġservice": 3093,
      "na": 3094,
      "ĠEuropean": 3095,
      "ĠFr": 3096,
      "Ġwhose": 3097,
      "Ġstudent": 3098,
      "den": 3099,
      "uff": 3100,
      "Ġfavor": 3101,
      "Ġheld": 3102,
      "Ġcover": 3103,
      "Ġobjects": 3104,
      "Ġrelationships": 3105,
      "Ġestablished": 3106,
      "Ġsoon": 3107,
      "ĠResearch": 3108,
      "Ġprogress": 3109,
      "Ġwood": 3110,
      "vey": 3111,
      "ython": 3112,
      "Ġlaws": 3113,
      "Ġeasy": 3114,
      "aff": 3115,
      "ĠAnt": 3116,
      "aly": 3117,
      "ervation": 3118,
      "Ġexcept": 3119,
      "Ġmicro": 3120,
      "Ġhimself": 3121,
      "Ġcauses": 3122,
      "ulated": 3123,
      "ĠFran": 3124,
      "Ġfinan": 3125,
      "Ġrout": 3126,
      "Ġproduced": 3127,
      "Ġ24": 3128,
      "Ġsection": 3129,
      "Ġfoot": 3130,
      "Ġcapital": 3131,
      "Ġshown": 3132,
      "ĠJu": 3133,
      "used": 3134,
      "ceed": 3135,
      "Ġcit": 3136,
      "ronic": 3137,
      "Ġ...": 3138,
      "icien": 3139,
      "cks": 3140,
      "vant": 3141,
      "Ġsn": 3142,
      "iers": 3143,
      "Ġsafety": 3144,
      "Ġdecision": 3145,
      "ĠScience": 3146,
      "Ġguid": 3147,
      "Ġful": 3148,
      "fort": 3149,
      "Ġstructures": 3150,
      "ellow": 3151,
      "Ġcompared": 3152,
      "idge": 3153,
      "Ġcontemporary": 3154,
      "ĠState": 3155,
      "ĠStep": 3156,
      "Ġfru": 3157,
      "Ġrecomm": 3158,
      "ino": 3159,
      "Ġimmedi": 3160,
      "rs": 3161,
      "ĠChar": 3162,
      "Ġaware": 3163,
      "mosp": 3164,
      "Ġtrying": 3165,
      "Ġir": 3166,
      "Ġinvolves": 3167,
      "Ġder": 3168,
      "Ġdaily": 3169,
      "ĠChristian": 3170,
      "Ġseason": 3171,
      "Ġlearned": 3172,
      "Ġapplications": 3173,
      "Ġsequ": 3174,
      "Ġprec": 3175,
      "Ġmother": 3176,
      "Ġcontinu": 3177,
      "ricult": 3178,
      "Ġund": 3179,
      "Ġ###": 3180,
      "Ġsustain": 3181,
      "Ġsleep": 3182,
      "Ġgetting": 3183,
      "Ġconcl": 3184,
      "amic": 3185,
      "Ġsaw": 3186,
      "Ġconflic": 3187,
      "illing": 3188,
      "Ġfascinating": 3189,
      "ifically": 3190,
      "ĠMin": 3191,
      "inks": 3192,
      "Ġextreme": 3193,
      ");": 3194,
      "Ġplanet": 3195,
      "ounds": 3196,
      "undred": 3197,
      "ĠBec": 3198,
      "ĠHar": 3199,
      "ĠFurther": 3200,
      "Ġevalu": 3201,
      "resh": 3202,
      "Ġprep": 3203,
      "eration": 3204,
      "Ġcollabor": 3205,
      "ĠSince": 3206,
      "Ġassess": 3207,
      "Ġcharacters": 3208,
      "ĠAc": 3209,
      "Ġcustom": 3210,
      "Ġappe": 3211,
      "Ġpolicy": 3212,
      "ĠSm": 3213,
      "ĠOnce": 3214,
      "Ġball": 3215,
      "Ġbrought": 3216,
      "Ġfunctions": 3217,
      "Ġreview": 3218,
      "lands": 3219,
      "iny": 3220,
      "Ġult": 3221,
      "eper": 3222,
      "Ġsong": 3223,
      "Ġmention": 3224,
      "ĠBo": 3225,
      "Ġ2010": 3226,
      "Ġresponsible": 3227,
      "Ġadj": 3228,
      "Ġelectric": 3229,
      "Ġconstruct": 3230,
      "Ġhands": 3231,
      "ĠAug": 3232,
      "Ġcolle": 3233,
      "Ġexpect": 3234,
      "Ġhar": 3235,
      "Ġeat": 3236,
      "ĠChina": 3237,
      "ID": 3238,
      "wise": 3239,
      "Ġsett": 3240,
      "uries": 3241,
      "Ġrich": 3242,
      "uk": 3243,
      "Ġ2012": 3244,
      "Ġdocument": 3245,
      "Ġnovel": 3246,
      "ĠAg": 3247,
      "izes": 3248,
      "Ġmolec": 3249,
      "dro": 3250,
      "ha": 3251,
      "cell": 3252,
      "Ġfamilies": 3253,
      "Ġpoor": 3254,
      "Ġoptim": 3255,
      "term": 3256,
      "Ġachieve": 3257,
      "igen": 3258,
      "Ġfair": 3259,
      "ĠOur": 3260,
      "Ġjud": 3261,
      "enge": 3262,
      "oly": 3263,
      "Ġanything": 3264,
      "Ġspeed": 3265,
      "ĠGreat": 3266,
      "ĠAfrican": 3267,
      "Ġthird": 3268,
      "osition": 3269,
      "ĠGree": 3270,
      "Ġrapid": 3271,
      "Ġsmaller": 3272,
      "Ġwrite": 3273,
      "Ġproviding": 3274,
      "Ġcook": 3275,
      "ĠAustral": 3276,
      "Ġagre": 3277,
      "Ġnegative": 3278,
      "Ġfit": 3279,
      "Ġmix": 3280,
      "asons": 3281,
      "25": 3282,
      "orthern": 3283,
      "Ġadded": 3284,
      "Ġnation": 3285,
      "Ġdamage": 3286,
      "ĠAddition": 3287,
      "uge": 3288,
      "iful": 3289,
      "Ġforest": 3290,
      "oes": 3291,
      "Ġhost": 3292,
      "Ġinternational": 3293,
      "Ġlost": 3294,
      "Ġprinciples": 3295,
      "Ġexplain": 3296,
      "ĠEngland": 3297,
      "itle": 3298,
      "Ġfinal": 3299,
      "Ġcontact": 3300,
      "Ġestablish": 3301,
      "Ġprint": 3302,
      "Ġdidn": 3303,
      "inate": 3304,
      "ĠRel": 3305,
      "Ġemphas": 3306,
      "Ġdirectly": 3307,
      "entially": 3308,
      "ĠCur": 3309,
      "ĠSee": 3310,
      "bor": 3311,
      "che": 3312,
      "Ġbad": 3313,
      "Ġearlier": 3314,
      "Ġadditional": 3315,
      "Ġeasily": 3316,
      "pper": 3317,
      "Ġevolution": 3318,
      "ira": 3319,
      "inated": 3320,
      "Ġlack": 3321,
      "ĠTheir": 3322,
      "Ġdiscovered": 3323,
      "Ġtree": 3324,
      "Ġheard": 3325,
      "Ġcele": 3326,
      "lim": 3327,
      "Ġmis": 3328,
      "Ġsuccessful": 3329,
      "Ġsus": 3330,
      "Ġtable": 3331,
      "Ġdark": 3332,
      "iles": 3333,
      "Ġcontribute": 3334,
      "ding": 3335,
      "Ġdiscover": 3336,
      "gar": 3337,
      "Ġdecl": 3338,
      "Ġphilos": 3339,
      "Ġtherefore": 3340,
      "Ġcomponents": 3341,
      "Ġcentral": 3342,
      "Ġtend": 3343,
      "Ġimages": 3344,
      "Ġstrugg": 3345,
      "Ġple": 3346,
      "Ġfra": 3347,
      "itch": 3348,
      "ls": 3349,
      "hemat": 3350,
      "Ġden": 3351,
      "rote": 3352,
      "ĠGl": 3353,
      "vention": 3354,
      "Ġidentity": 3355,
      "ements": 3356,
      "Ġthr": 3357,
      "ĠRoman": 3358,
      "mar": 3359,
      "Ġpredict": 3360,
      "cape": 3361,
      "ban": 3362,
      "Ġdiagn": 3363,
      "Ġast": 3364,
      "ille": 3365,
      "Ġpack": 3366,
      "Ġfront": 3367,
      "Ġexamples": 3368,
      "Ġconcent": 3369,
      "Ġinteresting": 3370,
      "artment": 3371,
      "?\"": 3372,
      "Ġregarding": 3373,
      "head": 3374,
      "Ġplaces": 3375,
      "Ġadop": 3376,
      "Ġactive": 3377,
      "Ġlimited": 3378,
      "Ġeyes": 3379,
      "cil": 3380,
      "Ġvisit": 3381,
      "Ġsect": 3382,
      "Ġmiss": 3383,
      "Ġshared": 3384,
      "Ġoffers": 3385,
      "Ġdiet": 3386,
      "Ġperfect": 3387,
      "Ġpen": 3388,
      "Ġmental": 3389,
      "cious": 3390,
      "Ġincludes": 3391,
      "lin": 3392,
      "Ġsteps": 3393,
      "rig": 3394,
      "Ġbase": 3395,
      "oration": 3396,
      "Ġbacter": 3397,
      "iciency": 3398,
      "Ġexactly": 3399,
      "Ġconvers": 3400,
      "Ġapplication": 3401,
      "Ġdang": 3402,
      "Ġatmosp": 3403,
      "Ġuser": 3404,
      "Ġlif": 3405,
      "Ġdetermine": 3406,
      "Ġdescribed": 3407,
      "Ġfight": 3408,
      "Ġvict": 3409,
      "ocr": 3410,
      "ought": 3411,
      "Ġdecided": 3412,
      "Ġdifferences": 3413,
      "ufact": 3414,
      "ĠBob": 3415,
      "Ġ;": 3416,
      "back": 3417,
      "ĠTechn": 3418,
      "Ġtransport": 3419,
      "ingu": 3420,
      "osure": 3421,
      "Ġliterature": 3422,
      "Ġ2011": 3423,
      "rael": 3424,
      "Ġhundred": 3425,
      "//": 3426,
      "Ġcoast": 3427,
      "irm": 3428,
      "Ġcarry": 3429,
      "Ġwon": 3430,
      "Ġtypically": 3431,
      "Ġlegal": 3432,
      "Ġnarr": 3433,
      "Ġstra": 3434,
      "Ġlibr": 3435,
      "Ġnothing": 3436,
      "ĠInter": 3437,
      "Ġveget": 3438,
      "equ": 3439,
      "Ġconnections": 3440,
      "Ġhope": 3441,
      "raft": 3442,
      "Ġsoftware": 3443,
      "Ġtold": 3444,
      "Ġsituation": 3445,
      "Ġserious": 3446,
      "ĠWest": 3447,
      "ana": 3448,
      "ancing": 3449,
      "Ġrule": 3450,
      "Ġrock": 3451,
      "Ġlength": 3452,
      "orders": 3453,
      "Ġ21": 3454,
      "uary": 3455,
      "Ġofficial": 3456,
      "Ġpan": 3457,
      "Ġfear": 3458,
      "Ġimagine": 3459,
      "ĠTrans": 3460,
      "ĠApr": 3461,
      "Ġhon": 3462,
      "Ġconstant": 3463,
      "Ġcitiz": 3464,
      "Ġbra": 3465,
      "Ġcam": 3466,
      "Ġten": 3467,
      "Ġsal": 3468,
      "Ġvo": 3469,
      "itable": 3470,
      "Ġnorth": 3471,
      "odes": 3472,
      "Ġdemand": 3473,
      "ech": 3474,
      "set": 3475,
      "itect": 3476,
      "Ġmid": 3477,
      "Ġillust": 3478,
      "Ġadapt": 3479,
      "Ġreach": 3480,
      "ĠBar": 3481,
      "Ġaccom": 3482,
      "ription": 3483,
      "ĠDav": 3484,
      "Ġdigital": 3485,
      "Ġconcepts": 3486,
      "Ġreported": 3487,
      "Ġbreat": 3488,
      "Ġmut": 3489,
      "Ġlabor": 3490,
      "ĠOct": 3491,
      "lation": 3492,
      "Ġacid": 3493,
      "Ġallowing": 3494,
      "Ġincluded": 3495,
      "Ġnumerous": 3496,
      "Ġmoment": 3497,
      "gypt": 3498,
      "Ġreceived": 3499,
      "Ġfuel": 3500,
      "oor": 3501,
      "Ġminutes": 3502,
      "oke": 3503,
      "Ġneigh": 3504,
      "Ġrob": 3505,
      "zz": 3506,
      "Ġmodels": 3507,
      "Ġelectr": 3508,
      "ĠGeor": 3509,
      "Ġcontroll": 3510,
      "Ġtrade": 3511,
      "Ġeye": 3512,
      "Ġvirt": 3513,
      "ula": 3514,
      "duc": 3515,
      "amples": 3516,
      "Ġwebs": 3517,
      "Ġsurrounding": 3518,
      "ĠDis": 3519,
      "Ġcontains": 3520,
      "Ġ23": 3521,
      "**:": 3522,
      "Ġproperty": 3523,
      "ĠIndian": 3524,
      "ellig": 3525,
      "Ġmiles": 3526,
      "Ġtrees": 3527,
      "Ġfinancial": 3528,
      "Ġmill": 3529,
      "ĠHistory": 3530,
      "agement": 3531,
      "Ġexec": 3532,
      "Ġdistinct": 3533,
      "Ġfigure": 3534,
      "Ġbeginning": 3535,
      "outhern": 3536,
      "Ġserve": 3537,
      "ĠIndia": 3538,
      "Ġvideo": 3539,
      "igate": 3540,
      "omy": 3541,
      "sect": 3542,
      "Ġ40": 3543,
      "ĠPeople": 3544,
      "Ġlived": 3545,
      "Ġcommunic": 3546,
      "AT": 3547,
      "ĠMon": 3548,
      "life": 3549,
      "ĠEgypt": 3550,
      "Ġconsequ": 3551,
      "Ġtiss": 3552,
      "Ġwrote": 3553,
      "ĠDef": 3554,
      "ĠAfrica": 3555,
      "Ġdeeper": 3556,
      "ĠIsrael": 3557,
      "ĠJewish": 3558,
      "ĠCanada": 3559,
      "Ġdistance": 3560,
      "aught": 3561,
      "Ġperhaps": 3562,
      "cles": 3563,
      "Ġkids": 3564,
      "axim": 3565,
      "Ġadvant": 3566,
      "ancy": 3567,
      "Ġforward": 3568,
      "ĠMarch": 3569,
      "Ġtrust": 3570,
      "Ġappropriate": 3571,
      "Ġprior": 3572,
      "ternal": 3573,
      "uses": 3574,
      "Ġuseful": 3575,
      "Ġson": 3576,
      "Ġhot": 3577,
      "Ġ22": 3578,
      "Ġexpression": 3579,
      "Ġing": 3580,
      "Ġ2009": 3581,
      "Ġcenter": 3582,
      "elcome": 3583,
      "Ġscen": 3584,
      "Ġ2008": 3585,
      "ashing": 3586,
      "Ġsignificantly": 3587,
      "60": 3588,
      "ĠSchool": 3589,
      "Ġequal": 3590,
      "Ġvariety": 3591,
      "Ġinsights": 3592,
      "Ġactions": 3593,
      "ĠMoreover": 3594,
      "ĠExpl": 3595,
      "Ġchallenge": 3596,
      "Ġhyp": 3597,
      "uman": 3598,
      "ĠJune": 3599,
      "Ġnames": 3600,
      "Ġallowed": 3601,
      "oud": 3602,
      "Ġhabit": 3603,
      "Ġalg": 3604,
      "Ġsociet": 3605,
      "ĠBecause": 3606,
      "40": 3607,
      "wide": 3608,
      "clusion": 3609,
      "Ġestim": 3610,
      "Ġexpand": 3611,
      "Ġwanted": 3612,
      "ĠThus": 3613,
      "://": 3614,
      "ĠCount": 3615,
      "Ġfather": 3616,
      "Ġgoal": 3617,
      "Ġgraph": 3618,
      "Ġcapac": 3619,
      "erences": 3620,
      "Ġnews": 3621,
      "amb": 3622,
      "Ġwat": 3623,
      "ES": 3624,
      "Ġassum": 3625,
      "Ġversion": 3626,
      "Ġnuclear": 3627,
      "Ġvia": 3628,
      "ocks": 3629,
      "Ġpow": 3630,
      "Ġinstall": 3631,
      "Ġpatient": 3632,
      "Ġcred": 3633,
      "arian": 3634,
      "Ġ2007": 3635,
      "ĠAlso": 3636,
      "Ġmanufact": 3637,
      "mission": 3638,
      "Ġcompanies": 3639,
      "time": 3640,
      "vest": 3641,
      "ĠPress": 3642,
      "Ġpurpose": 3643,
      "Ġsouth": 3644,
      "Ġsecurity": 3645,
      "Ġlanguages": 3646,
      "Ġcard": 3647,
      "Ġconver": 3648,
      "Ġhighly": 3649,
      "Ġgold": 3650,
      "ĠCommun": 3651,
      "Ġcateg": 3652,
      "ĠCong": 3653,
      "Ġrates": 3654,
      "Ġplat": 3655,
      "Ġsevere": 3656,
      "ĠAdditionally": 3657,
      "ĠRed": 3658,
      "Ġdecre": 3659,
      "Ġbirth": 3660,
      "Ġdevices": 3661,
      "care": 3662,
      "ĠSystem": 3663,
      "Ġproperties": 3664,
      "ky": 3665,
      "Ġfast": 3666,
      "Ġmiddle": 3667,
      "ourse": 3668,
      "Ġcou": 3669,
      "Ġrefers": 3670,
      "Ġprotection": 3671,
      "Ġcourt": 3672,
      "aid": 3673,
      "Chapter": 3674,
      "Ġbeautiful": 3675,
      "Ġlocation": 3676,
      "Ġmoving": 3677,
      "Ġphen": 3678,
      "Ġbodies": 3679,
      "ĠAre": 3680,
      "Ġrespond": 3681,
      "Ġroom": 3682,
      "Ġmachine": 3683,
      "Ġefficient": 3684,
      "Ġfresh": 3685,
      "resp": 3686,
      "Ġdead": 3687,
      "Ġroot": 3688,
      "Ġproced": 3689,
      "Ġevol": 3690,
      "Ġorganizations": 3691,
      "ĠSept": 3692,
      "unch": 3693,
      "ĠFeb": 3694,
      "Ġpoll": 3695,
      "Ġdim": 3696,
      "Ġinput": 3697,
      "istry": 3698,
      "Ġformed": 3699,
      "ĠRemember": 3700,
      "Ġblock": 3701,
      "Ġnearly": 3702,
      "ilit": 3703,
      "ĠMc": 3704,
      "22": 3705,
      "Ġstar": 3706,
      "Ġinitial": 3707,
      "Ġsolar": 3708,
      "Ġcompre": 3709,
      "Ġpiece": 3710,
      "ĠCalif": 3711,
      "ĠChe": 3712,
      "Ġgames": 3713,
      "Ġgoes": 3714,
      "Ġconnection": 3715,
      "Ġlimit": 3716,
      "Ġprivate": 3717,
      "Ġobtain": 3718,
      "Ġsupply": 3719,
      "ĠIntroduction": 3720,
      "ĠJes": 3721,
      "ĠSw": 3722,
      "Ġegg": 3723,
      "ĠDon": 3724,
      "Ġrise": 3725,
      "Ġpeace": 3726,
      "Ġsexual": 3727,
      "Ġdry": 3728,
      "Ġdestro": 3729,
      "Ġbab": 3730,
      "Ġgave": 3731,
      "Ġgard": 3732,
      "ipment": 3733,
      "Ġinstr": 3734,
      "Ġwrong": 3735,
      "ensity": 3736,
      "Ġpicture": 3737,
      "iant": 3738,
      "off": 3739,
      "ev": 3740,
      "Ġtrack": 3741,
      "ttp": 3742,
      "pre": 3743,
      "Ġacqu": 3744,
      "199": 3745,
      "Ġcosts": 3746,
      "80": 3747,
      "Ġ----------------": 3748,
      "Ġfeature": 3749,
      "ĠJuly": 3750,
      "encies": 3751,
      "ĠSom": 3752,
      "ĠLaw": 3753,
      "Ġautom": 3754,
      "Ġdegree": 3755,
      "estic": 3756,
      "Ġfilled": 3757,
      "Ġ2013": 3758,
      "ĠDevelop": 3759,
      "cember": 3760,
      "ords": 3761,
      "Ġprotein": 3762,
      "Ġcore": 3763,
      ".;": 3764,
      "su": 3765,
      "airs": 3766,
      "Ġeventually": 3767,
      "room": 3768,
      "oses": 3769,
      "Ġtele": 3770,
      "ĠTy": 3771,
      "Ġfoods": 3772,
      "Ġinvolve": 3773,
      "ĠCor": 3774,
      "pan": 3775,
      "Ġlocated": 3776,
      "ball": 3777,
      "Ġbul": 3778,
      "bre": 3779,
      "Ġborn": 3780,
      "Ġfollowed": 3781,
      "otic": 3782,
      "Ġadvent": 3783,
      "Ġapprox": 3784,
      "Ġpassed": 3785,
      "Ġdial": 3786,
      "Ġstage": 3787,
      "Ġconcerns": 3788,
      "ĠAmericans": 3789,
      "Ġbalance": 3790,
      "Ġdepend": 3791,
      "ĠPresident": 3792,
      "ĠPat": 3793,
      "Ġvill": 3794,
      "ĠVal": 3795,
      "ero": 3796,
      "ading": 3797,
      "Ġimag": 3798,
      "abet": 3799,
      "Ġgradu": 3800,
      "Ġalternative": 3801,
      "igenous": 3802,
      "ĠIr": 3803,
      "Ġdisplay": 3804,
      "eff": 3805,
      "Ġtrib": 3806,
      "ĠInc": 3807,
      "Ġexercise": 3808,
      "Ġsolution": 3809,
      "Ġelement": 3810,
      "Ġchoose": 3811,
      "Ġshall": 3812,
      "Ġaccur": 3813,
      "Ġtests": 3814,
      "Ġconclusion": 3815,
      "Ġrat": 3816,
      "Ġweather": 3817,
      "Ġexperiment": 3818,
      "bl": 3819,
      "Ġfields": 3820,
      "Ġadminist": 3821,
      "AR": 3822,
      "ham": 3823,
      "Ġseparate": 3824,
      "wards": 3825,
      "rieved": 3826,
      "Ġrare": 3827,
      "Ġwoman": 3828,
      "Ġrepe": 3829,
      "Ġdive": 3830,
      "ĠFinally": 3831,
      "ĠBefore": 3832,
      "reet": 3833,
      "rol": 3834,
      "Ġgives": 3835,
      "Ġmathemat": 3836,
      "aul": 3837,
      "Ġpoly": 3838,
      "rupt": 3839,
      "Ġinterpret": 3840,
      "Ġdecisions": 3841,
      "We": 3842,
      "Ġturned": 3843,
      "Ġdespite": 3844,
      "change": 3845,
      "Ġagricult": 3846,
      "known": 3847,
      "Ġcold": 3848,
      "Ġfelt": 3849,
      "Ġassign": 3850,
      "ĠAugust": 3851,
      "Ġplayed": 3852,
      "Ġgod": 3853,
      "Ġgenetic": 3854,
      "plications": 3855,
      "ĠIS": 3856,
      "ĠHigh": 3857,
      "ornia": 3858,
      "Ġoperations": 3859,
      "Ġalone": 3860,
      "Ġcompletely": 3861,
      "iding": 3862,
      "Ġmaxim": 3863,
      "ĠAlice": 3864,
      "Ġcommer": 3865,
      "pped": 3866,
      "rating": 3867,
      "ara": 3868,
      "ĠApril": 3869,
      "ament": 3870,
      "Ġeffectively": 3871,
      "Ġspecifically": 3872,
      "eks": 3873,
      "ped": 3874,
      "It": 3875,
      "Ġparam": 3876,
      "Ġbackground": 3877,
      "Ġcelebr": 3878,
      "Ġschol": 3879,
      "ĠEast": 3880,
      "Ġtou": 3881,
      "Ġworkers": 3882,
      "Ġded": 3883,
      "ĠFurthermore": 3884,
      "atur": 3885,
      "Ġeconomy": 3886,
      "Ġarchitect": 3887,
      "ama": 3888,
      "Ġfaith": 3889,
      "athy": 3890,
      "Ġsurpr": 3891,
      "ON": 3892,
      "rest": 3893,
      "Ġhom": 3894,
      "water": 3895,
      "edom": 3896,
      "inese": 3897,
      "ĠWilliam": 3898,
      "Ġwatch": 3899,
      "irection": 3900,
      "Ġdiseases": 3901,
      "omb": 3902,
      "Ġformer": 3903,
      "Ġiniti": 3904,
      "Ġtechnologies": 3905,
      "Ġmessage": 3906,
      "Ġbeg": 3907,
      "Ġcultures": 3908,
      "Ġeffort": 3909,
      "Ġteachers": 3910,
      "co": 3911,
      "Ġapply": 3912,
      "Ġdevice": 3913,
      "ibly": 3914,
      "Ġdetails": 3915,
      "Ġfamous": 3916,
      "Ġoccurs": 3917,
      "23": 3918,
      "Ġcast": 3919,
      "Ġstyle": 3920,
      "ests": 3921,
      "Ġbelieved": 3922,
      "Ġvit": 3923,
      "Ġwaste": 3924,
      "Ġsac": 3925,
      "Ġleave": 3926,
      "Ġpossess": 3927,
      "Ġteach": 3928,
      "sec": 3929,
      "Ġdefined": 3930,
      "Ġbelong": 3931,
      "21": 3932,
      "Ġreality": 3933,
      "idents": 3934,
      "ĠGovern": 3935,
      "ĠOb": 3936,
      "ĠCalifornia": 3937,
      "rees": 3938,
      "Ġcitizens": 3939,
      "Ġdrink": 3940,
      "ĠEduc": 3941,
      "ica": 3942,
      "onds": 3943,
      "ĠInternational": 3944,
      "roll": 3945,
      "ĠDecember": 3946,
      "rief": 3947,
      "ĠDespite": 3948,
      "Ġitems": 3949,
      "Ġoutput": 3950,
      "Ġtool": 3951,
      "Ġparty": 3952,
      "Ġsolid": 3953,
      "Ġpromote": 3954,
      "ĠUse": 3955,
      "ĠChurch": 3956,
      "Ġactual": 3957,
      "Ġgets": 3958,
      "Ġusers": 3959,
      "ĠVir": 3960,
      "ĠJanuary": 3961,
      "Ġswe": 3962,
      "Ġunf": 3963,
      "Ġclos": 3964,
      "anging": 3965,
      "rab": 3966,
      "Ġplays": 3967,
      "Ġhydro": 3968,
      "Ġbehavi": 3969,
      "Ġfederal": 3970,
      "Ġdivers": 3971,
      "Ġsem": 3972,
      "Ġexisting": 3973,
      "ĠCenter": 3974,
      "ault": 3975,
      "see": 3976,
      "ĠDec": 3977,
      "Ġsharing": 3978,
      "aled": 3979,
      "Ġbenefit": 3980,
      "Ġrunning": 3981,
      "Ġauthors": 3982,
      "gn": 3983,
      "Ġdivid": 3984,
      "ightly": 3985,
      "iable": 3986,
      "orith": 3987,
      "Ġreasons": 3988,
      "Ġcoming": 3989,
      "antic": 3990,
      "Ġrace": 3991,
      "ĠSimilar": 3992,
      "Ġmonth": 3993,
      "tical": 3994,
      "ovember": 3995,
      "Ġfilm": 3996,
      "Ġweb": 3997,
      "Ġprojects": 3998,
      "].": 3999,
      "Ġdat": 4000,
      "ĠWestern": 4001,
      "24": 4002,
      "Ġexposure": 4003,
      "ophy": 4004,
      "Ġregions": 4005,
      "Ġhappens": 4006,
      "Ġdied": 4007,
      "Ġpieces": 4008,
      "udd": 4009,
      "ĠSub": 4010,
      "Ġdetect": 4011,
      "ĠMac": 4012,
      "==": 4013,
      "Ġeight": 4014,
      "ifying": 4015,
      "alle": 4016,
      "Ġworked": 4017,
      "Ġsummer": 4018,
      "Ġplaying": 4019,
      "Ġreligion": 4020,
      "ĠJapanese": 4021,
      "IN": 4022,
      "enth": 4023,
      "Ġcounter": 4024,
      "ĠSeptember": 4025,
      "Ġmaster": 4026,
      "ĠLear": 4027,
      "Ġreduced": 4028,
      "Ġfemale": 4029,
      "Ġtherapy": 4030,
      "iverse": 4031,
      "Ġmeasures": 4032,
      "Ġthousands": 4033,
      "asion": 4034,
      "urt": 4035,
      "Ġfinding": 4036,
      "Ġlargest": 4037,
      "Ġequipment": 4038,
      "Ġbott": 4039,
      "Ġplaced": 4040,
      "ĠChinese": 4041,
      "Ġapplied": 4042,
      "useum": 4043,
      "ĠInstead": 4044,
      "ĠSur": 4045,
      "Ġhous": 4046,
      "ĠBra": 4047,
      "osy": 4048,
      "ĠIts": 4049,
      "ĠProt": 4050,
      "Ġtrend": 4051,
      "ĠEv": 4052,
      "cip": 4053,
      "umn": 4054,
      "ĠLat": 4055,
      "Ġclin": 4056,
      "ĠConf": 4057,
      "ĠRetrieved": 4058,
      "Ġocean": 4059,
      "ĠRo": 4060,
      "Ġrecently": 4061,
      "Ġbasis": 4062,
      "edit": 4063,
      "Ġsounds": 4064,
      "Ġresulting": 4065,
      "iced": 4066,
      "Ġchanging": 4067,
      "going": 4068,
      "ĠInstitute": 4069,
      "Ġplatform": 4070,
      "Ġonto": 4071,
      "Ġpopulations": 4072,
      "Ġlayer": 4073,
      "ĠBlack": 4074,
      "Ġexpected": 4075,
      "amental": 4076,
      "hips": 4077,
      "29": 4078,
      "Ġgiving": 4079,
      "Ġprofessional": 4080,
      "ĠIre": 4081,
      "formation": 4082,
      "Ġorganization": 4083,
      "orial": 4084,
      "ĠRev": 4085,
      "ĠMr": 4086,
      "ĠRiver": 4087,
      "Ġworth": 4088,
      "ondon": 4089,
      "Ġteaching": 4090,
      "Ġmember": 4091,
      "cipl": 4092,
      "ĠJesus": 4093,
      "Ġenem": 4094,
      "ogen": 4095,
      "Ġreceive": 4096,
      "Ġcreation": 4097,
      "Ġadults": 4098,
      "key": 4099,
      "Ġcausing": 4100,
      "aign": 4101,
      "Ġ26": 4102,
      "Ġ60": 4103,
      "Ġcommonly": 4104,
      "gment": 4105,
      "ste": 4106,
      "Ġaffected": 4107,
      "Ġtruth": 4108,
      "coh": 4109,
      "Ġforeign": 4110,
      "ĠFrance": 4111,
      "zing": 4112,
      "Ġoccup": 4113,
      "exic": 4114,
      "ĠGermany": 4115,
      "Ġmilk": 4116,
      "rates": 4117,
      "Ġfix": 4118,
      "Ġpolicies": 4119,
      "ĠPal": 4120,
      "Ġexperim": 4121,
      "force": 4122,
      "ĠDNA": 4123,
      "Ġsolutions": 4124,
      "Ġchanged": 4125,
      "Ġrain": 4126,
      "Ġanyone": 4127,
      "Ġintellig": 4128,
      "Ġrepresents": 4129,
      "Ġoptions": 4130,
      "omic": 4131,
      "uls": 4132,
      "70": 4133,
      "IS": 4134,
      "ava": 4135,
      "abilities": 4136,
      "Ġreaders": 4137,
      "Ġweeks": 4138,
      "Ġqual": 4139,
      "Ġfully": 4140,
      "Ġtim": 4141,
      "ĠSoci": 4142,
      "Ġ193": 4143,
      "Ġweak": 4144,
      "ĠConclusion": 4145,
      "ĠConst": 4146,
      "Ġvary": 4147,
      "Ġteacher": 4148,
      "anish": 4149,
      "enty": 4150,
      "ĠServ": 4151,
      "Ġbran": 4152,
      "men": 4153,
      "ĠAlex": 4154,
      "Ġstrength": 4155,
      "Ġmentioned": 4156,
      "Ġchurch": 4157,
      "Ġwonder": 4158,
      "ĠDepartment": 4159,
      "cast": 4160,
      "ald": 4161,
      "Ġdirection": 4162,
      "Ġscale": 4163,
      "hetic": 4164,
      "Ġpret": 4165,
      "Ġadvanced": 4166,
      "Ġstatus": 4167,
      "Ġscreen": 4168,
      "Ġconstruction": 4169,
      "unction": 4170,
      "idden": 4171,
      "Ġdistribution": 4172,
      "Ġanti": 4173,
      "Ġbirds": 4174,
      "Ġdro": 4175,
      "ĠBi": 4176,
      "book": 4177,
      "ĠJews": 4178,
      "Ġbank": 4179,
      "Ġincl": 4180,
      "rows": 4181,
      "issions": 4182,
      "Ġphenomen": 4183,
      "ĠDisc": 4184,
      "Ġheavy": 4185,
      "works": 4186,
      "Ġdoctor": 4187,
      "ĠNA": 4188,
      "ĠJour": 4189,
      "Ġbecoming": 4190,
      "Ġbox": 4191,
      "mitted": 4192,
      "ĠCity": 4193,
      "ĠGeneral": 4194,
      "Ġenter": 4195,
      "Ġolder": 4196,
      "uild": 4197,
      "ĠSun": 4198,
      "Ġvot": 4199,
      "Ġgenerations": 4200,
      "Ġapproaches": 4201,
      "Ġplanning": 4202,
      "Ġensuring": 4203,
      "Ġtast": 4204,
      "II": 4205,
      "Ġrot": 4206,
      "Ġrelease": 4207,
      "Ġsites": 4208,
      "Ġrelevant": 4209,
      "ĠIreland": 4210,
      "Ġtechnique": 4211,
      "ĠBoth": 4212,
      "elines": 4213,
      "Ġmap": 4214,
      "ris": 4215,
      "Ġcry": 4216,
      "Ġinfluen": 4217,
      "Ġunivers": 4218,
      "Ġsetting": 4219,
      "Ġcompar": 4220,
      "prove": 4221,
      "Ġstream": 4222,
      "Ġ2006": 4223,
      "azing": 4224,
      "Ġhappen": 4225,
      "Ġsaying": 4226,
      "ĠUsing": 4227,
      "Ġ28": 4228,
      "ĠMat": 4229,
      "ĠNovember": 4230,
      "ping": 4231,
      "asks": 4232,
      "Ġalt": 4233,
      "Ġengaging": 4234,
      "Ġpick": 4235,
      "Ġattract": 4236,
      "ĠProg": 4237,
      "Ġpet": 4238,
      "ashington": 4239,
      "Ġveh": 4240,
      "Ġcomfort": 4241,
      "ĠAssoci": 4242,
      "Ġgender": 4243,
      "Ġtour": 4244,
      "()": 4245,
      "iance": 4246,
      "oe": 4247,
      "ĠOctober": 4248,
      "ĠSol": 4249,
      "Ġwinter": 4250,
      "Ġalgorith": 4251,
      "ching": 4252,
      "ĠMic": 4253,
      "Ġfrequently": 4254,
      "Ġembra": 4255,
      "ĠJames": 4256,
      "Ġtransfer": 4257,
      "Ġcapacity": 4258,
      "cop": 4259,
      "Ġdestroy": 4260,
      "Ġatmosphere": 4261,
      "Ġappears": 4262,
      "ĠMexic": 4263,
      "ĠChild": 4264,
      "Ġbacteria": 4265,
      "que": 4266,
      "ĠUp": 4267,
      "Ġincreasingly": 4268,
      "Ġpresence": 4269,
      "Ġstore": 4270,
      "ologists": 4271,
      "Ġcoord": 4272,
      "ĠAng": 4273,
      "Ġfactor": 4274,
      "onic": 4275,
      "ken": 4276,
      "Ġdate": 4277,
      "ception": 4278,
      "ĠCO": 4279,
      "ented": 4280,
      "Ġconv": 4281,
      "ĠAss": 4282,
      "Ġhelped": 4283,
      "ogle": 4284,
      "Ġresistance": 4285,
      "27": 4286,
      "Ġkn": 4287,
      "Ġradiation": 4288,
      "amics": 4289,
      "can": 4290,
      "semb": 4291,
      "Ġvast": 4292,
      "Ġcontrast": 4293,
      "Ġspeech": 4294,
      "Ġsignificance": 4295,
      "ares": 4296,
      "Ġdeal": 4297,
      "Ġleaves": 4298,
      "Ġgoals": 4299,
      "Ġterrit": 4300,
      "ĠEmp": 4301,
      "ĠPort": 4302,
      "och": 4303,
      "year": 4304,
      "Ġnote": 4305,
      "Ġcand": 4306,
      "AN": 4307,
      "Ġtraditions": 4308,
      "Ġadvance": 4309,
      "ĠPark": 4310,
      "Ġadjust": 4311,
      "Ġmoved": 4312,
      "ygen": 4313,
      "Ġ>": 4314,
      "rition": 4315,
      "lies": 4316,
      "Ġcorresp": 4317,
      "Ġemotional": 4318,
      "Ġacadem": 4319,
      "Ġarm": 4320,
      "Ġfeelings": 4321,
      "Ġbattle": 4322,
      "Ġ195": 4323,
      "Ġsuggests": 4324,
      "Ġartists": 4325,
      "mat": 4326,
      "ĠPost": 4327,
      "Ġcollection": 4328,
      "Ġopin": 4329,
      "Ġspect": 4330,
      "ĠUnion": 4331,
      "Ġpp": 4332,
      "Ġchoice": 4333,
      "Ġstandards": 4334,
      "ĠIsl": 4335,
      "ĠNav": 4336,
      "Ġopportunity": 4337,
      "Ġbillion": 4338,
      "ĠSch": 4339,
      "ĠSam": 4340,
      "Ġsyn": 4341,
      "Ġrelatively": 4342,
      "Ġbeliefs": 4343,
      "'m": 4344,
      "Ġgene": 4345,
      "Ġtail": 4346,
      "itutions": 4347,
      "Ġfindings": 4348,
      "Ġroad": 4349,
      "ooth": 4350,
      "Ġax": 4351,
      "ĠWashington": 4352,
      "aint": 4353,
      "Ġinstruct": 4354,
      "Ġclasses": 4355,
      "ĠMars": 4356,
      "Ġsynt": 4357,
      "icip": 4358,
      "oty": 4359,
      "Ġmaintaining": 4360,
      "ĠTwo": 4361,
      "ĠLike": 4362,
      "ether": 4363,
      "ĠBr": 4364,
      "ĠLondon": 4365,
      "Ġsituations": 4366,
      "met": 4367,
      "ĠWater": 4368,
      "Ġimmediately": 4369,
      "Ġvital": 4370,
      "Ġprice": 4371,
      "Ġhappened": 4372,
      "Ġengage": 4373,
      "26": 4374,
      "Ġcities": 4375,
      "Ġblue": 4376,
      "ĠEvery": 4377,
      "ruary": 4378,
      "Ġsecret": 4379,
      "Ġchance": 4380,
      "ollow": 4381,
      "ĠOff": 4382,
      "Ġreference": 4383,
      "Ġabsor": 4384,
      "tery": 4385,
      "hest": 4386,
      "othes": 4387,
      "Ġlessons": 4388,
      "Ġfeeling": 4389,
      "ĠIII": 4390,
      "Ġattrib": 4391,
      "Ġeasier": 4392,
      "ss": 4393,
      "ingly": 4394,
      "Ġhttp": 4395,
      "Ġtesting": 4396,
      "ĠGreek": 4397,
      "ĠÃ": 4398,
      "Ġsigns": 4399,
      "ĠUnit": 4400,
      "Ġrand": 4401,
      "Ġtransl": 4402,
      "iveness": 4403,
      "Ġmel": 4404,
      "igure": 4405,
      "igating": 4406,
      "Ġindependent": 4407,
      "bed": 4408,
      "ulating": 4409,
      "ML": 4410,
      "ĠMary": 4411,
      "ĠThom": 4412,
      "Ġconnected": 4413,
      "Ġmovements": 4414,
      "Ġign": 4415,
      "rog": 4416,
      "bal": 4417,
      "ny": 4418,
      "Ġfavorite": 4419,
      "ux": 4420,
      "Ġhair": 4421,
      "ĠRef": 4422,
      "Ġmig": 4423,
      "rick": 4424,
      "comes": 4425,
      "Ġreleased": 4426,
      "Ġappreciate": 4427,
      "ĠArch": 4428,
      "Ġstatement": 4429,
      "ĠWrit": 4430,
      "Ġadvoc": 4431,
      "Ġthoughts": 4432,
      "aur": 4433,
      "Ġeating": 4434,
      "Ġmere": 4435,
      "raw": 4436,
      "ĠSocial": 4437,
      "hy": 4438,
      "xic": 4439,
      "Ġshowed": 4440,
      "Ġdiscussion": 4441,
      "cap": 4442,
      "orage": 4443,
      "Ġmale": 4444,
      "ĠMor": 4445,
      "Ġguide": 4446,
      "Ġutil": 4447,
      "ford": 4448,
      "gery": 4449,
      "tes": 4450,
      "Ġrandom": 4451,
      "ias": 4452,
      "Ġcomment": 4453,
      "Ġobserved": 4454,
      "ĠHistor": 4455,
      "Ġprepar": 4456,
      "Ġmob": 4457,
      "Ġprofession": 4458,
      "iest": 4459,
      "Ġ27": 4460,
      "Ġcolors": 4461,
      "Ġinfection": 4462,
      "cohol": 4463,
      "Ġdepending": 4464,
      "rane": 4465,
      "Ġreducing": 4466,
      "Ġchallenging": 4467,
      "Ġdelve": 4468,
      "Ġpref": 4469,
      "icial": 4470,
      "IV": 4471,
      "house": 4472,
      "Ġstarting": 4473,
      "cript": 4474,
      "Ġship": 4475,
      "Ġmuscle": 4476,
      "Ġsort": 4477,
      "Ġradio": 4478,
      "Ġdram": 4479,
      "ĠDay": 4480,
      "Ġparticles": 4481,
      "AC": 4482,
      "Ġiron": 4483,
      "Ġsand": 4484,
      "Ġgir": 4485,
      "ĠOp": 4486,
      "Ġcomprehens": 4487,
      "ĠVol": 4488,
      "Ġinfect": 4489,
      "Ġexcess": 4490,
      "eters": 4491,
      "Ġminor": 4492,
      "Ġtopics": 4493,
      "ded": 4494,
      "Ġmeant": 4495,
      "ĠDavid": 4496,
      "Ġhear": 4497,
      "za": 4498,
      "Ġrul": 4499,
      "Ġhosp": 4500,
      "Ġexperienced": 4501,
      "era": 4502,
      "ĠWeb": 4503,
      "Ġready": 4504,
      "What": 4505,
      "oo": 4506,
      "Ġstudying": 4507,
      "inn": 4508,
      "Ġupd": 4509,
      "Ġincreases": 4510,
      "Ġintroduced": 4511,
      "ĠSuch": 4512,
      "Ġexhib": 4513,
      "ĠLast": 4514,
      "Ġfundamental": 4515,
      "ĠAv": 4516,
      "Ġfacilit": 4517,
      "Ġprimarily": 4518,
      "Ġnative": 4519,
      "ĠMark": 4520,
      "Ġinvolving": 4521,
      "Ġcircum": 4522,
      "ĠSan": 4523,
      "Ġsignal": 4524,
      "Ġcenturies": 4525,
      "Ġpurch": 4526,
      "aughter": 4527,
      "Ġcharacteristics": 4528,
      "Ġ29": 4529,
      "Ġjustice": 4530,
      "ĠProf": 4531,
      "ĠId": 4532,
      "Ġisol": 4533,
      "Ġinh": 4534,
      "Ġmission": 4535,
      "pected": 4536,
      "Ġfaced": 4537,
      "Ġspiritual": 4538,
      "Ġpresident": 4539,
      "Ġsugar": 4540,
      "Ġrisks": 4541,
      "Ġfigures": 4542,
      "Ġknew": 4543,
      "Ġinternal": 4544,
      "Ġcampaign": 4545,
      "OR": 4546,
      "akers": 4547,
      "Ġincred": 4548,
      "ensions": 4549,
      "Ġmal": 4550,
      "Ġliqu": 4551,
      "ĠLife": 4552,
      "Ġcontract": 4553,
      "Ġhelping": 4554,
      "uting": 4555,
      "erved": 4556,
      "Ġdoub": 4557,
      "Ġtro": 4558,
      "Ġmo": 4559,
      "ees": 4560,
      "ĠWho": 4561,
      "ĠFebruary": 4562,
      "Ġriver": 4563,
      "ĠNor": 4564,
      "ressive": 4565,
      "Ġnotes": 4566,
      "Ġinterests": 4567,
      "Ġfinally": 4568,
      "Ã¡": 4569,
      "ibilities": 4570,
      "Â°": 4571,
      "iling": 4572,
      "Ġmotion": 4573,
      "Ġresource": 4574,
      "Ġdefinition": 4575,
      "Ġmaybe": 4576,
      "Ġmajority": 4577,
      "urg": 4578,
      "Ġunits": 4579,
      "IC": 4580,
      "ãģ": 4581,
      "Ġbrother": 4582,
      "rence": 4583,
      "Ġ2000": 4584,
      "Ġsets": 4585,
      "Ġcapable": 4586,
      "ĠRepublic": 4587,
      "ĠBritain": 4588,
      "Ġapproximately": 4589,
      "org": 4590,
      "ĠDem": 4591,
      "Ġleaving": 4592,
      "Ġsave": 4593,
      "Ġgrand": 4594,
      "Ġprocessing": 4595,
      "Ġ2005": 4596,
      "Ġlooked": 4597,
      "lor": 4598,
      "Ġwebsite": 4599,
      "Ġtiny": 4600,
      "ĠMich": 4601,
      "Ġkilled": 4602,
      "vironments": 4603,
      "!\"": 4604,
      "ĠThink": 4605,
      "Ġcurrently": 4606,
      "Ġreb": 4607,
      "ĠCre": 4608,
      "Ġexamine": 4609,
      "45": 4610,
      "ressed": 4611,
      "oyal": 4612,
      "Ġdegrees": 4613,
      "ĠSar": 4614,
      "Ġgenes": 4615,
      "Ġbuy": 4616,
      "Ġcontinues": 4617,
      "Ġfiles": 4618,
      "Ġmedicine": 4619,
      "Ġdiversity": 4620,
      "zy": 4621,
      "Ġworldwide": 4622,
      "Ġcharge": 4623,
      "28": 4624,
      "nes": 4625,
      "Ġdrugs": 4626,
      "oul": 4627,
      "Ġtemperatures": 4628,
      "Ġsquare": 4629,
      "Ġrecords": 4630,
      "Ġcro": 4631,
      "Ġmist": 4632,
      "Ġvote": 4633,
      "ologist": 4634,
      "Ġmonit": 4635,
      "Ġoxygen": 4636,
      "ĠScient": 4637,
      "Ġpromoting": 4638,
      "cest": 4639,
      "Ġhealthcare": 4640,
      "Ġfreedom": 4641,
      "Ġserved": 4642,
      "ĠPhil": 4643,
      "Ġtrou": 4644,
      "Ġhuge": 4645,
      "Ġremained": 4646,
      "Ġconflict": 4647,
      "usive": 4648,
      "rm": 4649,
      "ĠRober": 4650,
      "Ġdescribe": 4651,
      "Ġfruit": 4652,
      "Ġupper": 4653,
      "acing": 4654,
      "ĠOld": 4655,
      "Ġ190": 4656,
      "Ġclosely": 4657,
      "Ġhop": 4658,
      "board": 4659,
      "Ġtub": 4660,
      "Ġreached": 4661,
      "Ġdisp": 4662,
      "urance": 4663,
      "Ġweap": 4664,
      "Ġprefer": 4665,
      "Ġmetal": 4666,
      "Ġeducational": 4667,
      "Ġknows": 4668,
      "Ġcultiv": 4669,
      "Ġcopy": 4670,
      "90": 4671,
      "ari": 4672,
      "ogue": 4673,
      "Ġdrive": 4674,
      "Ġclearly": 4675,
      "Ġingred": 4676,
      "ta": 4677,
      "Ġfine": 4678,
      "ocal": 4679,
      "ĠPhys": 4680,
      "ĠMedic": 4681,
      "eding": 4682,
      "ĠHouse": 4683,
      "ĠKey": 4684,
      "vision": 4685,
      "ĠGeorge": 4686,
      "ĠCoun": 4687,
      "Ġresil": 4688,
      "ographic": 4689,
      "Ġsymbol": 4690,
      "related": 4691,
      "apers": 4692,
      "Ġemotions": 4693,
      "abetes": 4694,
      "ĠSimilarly": 4695,
      "Ġthick": 4696,
      "Ġwhom": 4697,
      "ĠWhite": 4698,
      "Ġves": 4699,
      "Ġstim": 4700,
      "ĠHen": 4701,
      "Ġcarefully": 4702,
      "Ġpractical": 4703,
      "Ġfostering": 4704,
      "ĠJournal": 4705,
      "ĠGreen": 4706,
      "Ġtissue": 4707,
      "Ġviolence": 4708,
      "Ġseeking": 4709,
      "iled": 4710,
      "ags": 4711,
      "Ġgeneration": 4712,
      "This": 4713,
      "olute": 4714,
      "ĠMiddle": 4715,
      "Ġaren": 4716,
      "Ġvacc": 4717,
      "ander": 4718,
      "Ġoutcomes": 4719,
      "Ġstorm": 4720,
      "Ġpregn": 4721,
      "ĠCath": 4722,
      "ague": 4723,
      "Ġnor": 4724,
      "ĠBel": 4725,
      "AS": 4726,
      "ĠSpe": 4727,
      "Ġoffice": 4728,
      "ĠSociety": 4729,
      "ĠCongress": 4730,
      "IT": 4731,
      "Ġtask": 4732,
      "Ġexplained": 4733,
      "ĠSecond": 4734,
      "Ġsav": 4735,
      "Ġjournal": 4736,
      "Ġflex": 4737,
      "Ġheight": 4738,
      "anted": 4739,
      "ĠRussia": 4740,
      "Ġspent": 4741,
      "ĠAir": 4742,
      "Ġletter": 4743,
      "Ġenvironments": 4744,
      "ognitive": 4745,
      "Ġhoriz": 4746,
      "ria": 4747,
      "place": 4748,
      "ishing": 4749,
      "Ġcycle": 4750,
      "33": 4751,
      "Ġinsect": 4752,
      "inent": 4753,
      "Ġfert": 4754,
      "ĠRich": 4755,
      "Ġwidely": 4756,
      "Ġmer": 4757,
      "Ġboard": 4758,
      "pass": 4759,
      "itage": 4760,
      "Ġpu": 4761,
      "Ġgather": 4762,
      "ĠGra": 4763,
      "Ġju": 4764,
      "Ġidentified": 4765,
      "Ġlegis": 4766,
      "Ġbusinesses": 4767,
      "Ġhit": 4768,
      "Ġconsequences": 4769,
      "Ġperspectives": 4770,
      "ĠAustralia": 4771,
      "Ġparties": 4772,
      "Ġcompl": 4773,
      "uit": 4774,
      "Ġreferred": 4775,
      "Ġseven": 4776,
      "Ġreturned": 4777,
      "ĠDi": 4778,
      "Ġdisorders": 4779,
      "Ġthemes": 4780,
      "Ġdream": 4781,
      "leg": 4782,
      "Ġexternal": 4783,
      "ortion": 4784,
      "Ġexplan": 4785,
      "Ġengineering": 4786,
      "Ġrevolution": 4787,
      "Ġcommercial": 4788,
      "ctor": 4789,
      "Ġcomputers": 4790,
      "Ġwasn": 4791,
      "Ġwis": 4792,
      "Ġround": 4793,
      "Ġimproved": 4794,
      "Ġchann": 4795,
      "Ġdecades": 4796,
      "improve": 4797,
      "ĠBen": 4798,
      "rices": 4799,
      "Ġorigin": 4800,
      "Ġawareness": 4801,
      "Ġongoing": 4802,
      "www": 4803,
      "Ġexpert": 4804,
      "Ġassist": 4805,
      "nic": 4806,
      "ĠAdd": 4807,
      "ĠMal": 4808,
      "ĠCour": 4809,
      "Ġsatis": 4810,
      "mp": 4811,
      "mark": 4812,
      "Ġtasks": 4813,
      "atically": 4814,
      "itis": 4815,
      "Ġwealth": 4816,
      "Ġcontaining": 4817,
      "Ġfamiliar": 4818,
      "Ġpal": 4819,
      "Ġleads": 4820,
      "Ġbottom": 4821,
      "ĠRussian": 4822,
      "Ġ2004": 4823,
      "Ġstars": 4824,
      "Ġapart": 4825,
      "Ġperformed": 4826,
      "Ġurban": 4827,
      "Ġremind": 4828,
      "Ġstraight": 4829,
      "Ġlibrary": 4830,
      "Ġillness": 4831,
      "load": 4832,
      "Ġpun": 4833,
      "aph": 4834,
      "Ġenhance": 4835,
      "Ġplans": 4836,
      "ĠSupp": 4837,
      "ĠSometimes": 4838,
      "Ġwave": 4839,
      "Ġourselves": 4840,
      "Ġefficiency": 4841,
      "Ġkeeping": 4842,
      "ellect": 4843,
      "Ġarms": 4844,
      "isp": 4845,
      "Ġmouth": 4846,
      "Ġsmooth": 4847,
      "Ġvalid": 4848,
      "Ġ{": 4849,
      "Ġadding": 4850,
      "Ġreaction": 4851,
      "ĠCult": 4852,
      "Ġfrequency": 4853,
      "Ġcreative": 4854,
      "Ġvirus": 4855,
      "Ġarmy": 4856,
      "Ġgun": 4857,
      "ĠFe": 4858,
      "lick": 4859,
      "Ġlayers": 4860,
      "Ġagg": 4861,
      "ortunately": 4862,
      "Ġwit": 4863,
      "cycl": 4864,
      "Ġaw": 4865,
      "Ġroll": 4866,
      "inations": 4867,
      "Ġlooks": 4868,
      "ĠEducation": 4869,
      "erate": 4870,
      "Ġbow": 4871,
      "Ġuniverse": 4872,
      "Ġvision": 4873,
      "ĠHuman": 4874,
      "Ġkill": 4875,
      "osen": 4876,
      "ĠHy": 4877,
      "Ġslightly": 4878,
      "ĠTur": 4879,
      "crib": 4880,
      "Ġpresented": 4881,
      "Ġwaters": 4882,
      "Ġconvent": 4883,
      "Ġincome": 4884,
      "Ġexamining": 4885,
      "riage": 4886,
      "Ġanx": 4887,
      "Ġintric": 4888,
      "Ġperiods": 4889,
      "PA": 4890,
      "Ġformation": 4891,
      "xts": 4892,
      "Ġmeeting": 4893,
      "ĠConn": 4894,
      "Ġwest": 4895,
      "ĠCap": 4896,
      "ĠTherefore": 4897,
      "Ġamounts": 4898,
      "Ġletters": 4899,
      "Ġlandscape": 4900,
      "Ġhomes": 4901,
      "Ġaid": 4902,
      "ĠKore": 4903,
      "Ġinstitutions": 4904,
      "Ġdetermined": 4905,
      "Ġnations": 4906,
      "ĠBas": 4907,
      "ĠSpanish": 4908,
      "Ġneuro": 4909,
      "Ġrh": 4910,
      "Ġroles": 4911,
      "ĠMuslim": 4912,
      "ĠMet": 4913,
      "Ġexistence": 4914,
      "making": 4915,
      "Ġstorage": 4916,
      "Ġspaces": 4917,
      "poses": 4918,
      "ĠIrish": 4919,
      "35": 4920,
      "Äģ": 4921,
      "Ġremove": 4922,
      "ĠWik": 4923,
      "ĠCommon": 4924,
      "cers": 4925,
      "Ġconsumption": 4926,
      "Ġnarratives": 4927,
      "ED": 4928,
      "Ġdiscrim": 4929,
      "icated": 4930,
      "Ġancest": 4931,
      "Ġmeat": 4932,
      "ails": 4933,
      "ĠAny": 4934,
      "Ġmulti": 4935,
      "Ġextremely": 4936,
      "Ġrein": 4937,
      "ĠMart": 4938,
      "Ġcarried": 4939,
      "Ġcombined": 4940,
      "Ġfocused": 4941,
      "Ġpros": 4942,
      "Ġargument": 4943,
      "ĠAbout": 4944,
      "Ġprepared": 4945,
      "Ġelectricity": 4946,
      "Ġseek": 4947,
      "ĠArab": 4948,
      "Ġindustrial": 4949,
      "ĠPublic": 4950,
      "ĠLa": 4951,
      "Ġspot": 4952,
      "Ġglass": 4953,
      "Ġnutri": 4954,
      "Ġarrang": 4955,
      "Ġrapidly": 4956,
      "Ġcovered": 4957,
      "Ġsustainable": 4958,
      "Ġfaster": 4959,
      "Ġshar": 4960,
      "ipped": 4961,
      "icians": 4962,
      "uration": 4963,
      "ĠSov": 4964,
      "Ġspl": 4965,
      "Ġload": 4966,
      "Ġauthority": 4967,
      "Ġlies": 4968,
      "Ġcombination": 4969,
      "Ġcloser": 4970,
      "iration": 4971,
      "ĠInf": 4972,
      "Ġâ": 4973,
      "Ġprison": 4974,
      "Ġcorrespond": 4975,
      "OS": 4976,
      "Ġnorthern": 4977,
      "Ġdiscovery": 4978,
      "ĠConsider": 4979,
      "ĠNASA": 4980,
      "ixt": 4981,
      "Ġchoices": 4982,
      "Ġreplace": 4983,
      "Ġrequirements": 4984,
      "Ġframew": 4985,
      "Ġultimately": 4986,
      "char": 4987,
      "Ġwaves": 4988,
      "ĠQue": 4989,
      "Ġtried": 4990,
      "ĠTest": 4991,
      "Ġamazing": 4992,
      "Ġstring": 4993,
      "Ġgenerate": 4994,
      "Ġforced": 4995,
      "ulf": 4996,
      "ĠLeg": 4997,
      "Ġcoal": 4998,
      "ĠInternet": 4999,
      "osystem": 5000,
      "Ġtrig": 5001,
      "Ġpotentially": 5002,
      "uing": 5003,
      "Ġfort": 5004,
      "Ġremoved": 5005,
      "Ġisland": 5006,
      "Ġpretty": 5007,
      "Ġmanage": 5008,
      "BC": 5009,
      "Ġgar": 5010,
      "ĠMount": 5011,
      "Ġexchange": 5012,
      "Ġflat": 5013,
      "Ġcere": 5014,
      "ĠNext": 5015,
      "Ġhighlight": 5016,
      "rant": 5017,
      "ormal": 5018,
      "Ġrecommend": 5019,
      "Ġproposed": 5020,
      "Ġsequence": 5021,
      "Ġsud": 5022,
      "Ġoperation": 5023,
      "Ġshaping": 5024,
      "iosity": 5025,
      "Ġproteins": 5026,
      "Ġvessel": 5027,
      "oma": 5028,
      "ĠLess": 5029,
      "ĠYes": 5030,
      "Ġencoun": 5031,
      "ĠTim": 5032,
      "Ġscholars": 5033,
      "Ġstrategy": 5034,
      "ĠSl": 5035,
      "ĠCounty": 5036,
      "Ġdefine": 5037,
      "Ġelim": 5038,
      "sequently": 5039,
      "Ġsides": 5040,
      "urd": 5041,
      "Ġdoll": 5042,
      "Ġadvantage": 5043,
      "ĠLatin": 5044,
      "ĠHol": 5045,
      "ructure": 5046,
      "Ġbuildings": 5047,
      "ager": 5048,
      "Ġreports": 5049,
      "Ġhighest": 5050,
      "Ġcloth": 5051,
      "Ġkept": 5052,
      "ĠEnvironment": 5053,
      "ĠKeep": 5054,
      "Ġmath": 5055,
      "Ġpreviously": 5056,
      "ossible": 5057,
      "Ġperspective": 5058,
      "Ġdrawing": 5059,
      "à¤": 5060,
      "astern": 5061,
      "ĠAD": 5062,
      "Ġaccepted": 5063,
      "Ġvictim": 5064,
      "Ġaccurate": 5065,
      "ĠPaul": 5066,
      "EN": 5067,
      "herent": 5068,
      "rich": 5069,
      "Ġfiction": 5070,
      "ĠCat": 5071,
      "Ġvolunt": 5072,
      "Ġarray": 5073,
      "Ġresponsibility": 5074,
      "acific": 5075,
      "ĠNote": 5076,
      "itan": 5077,
      "Ġprecise": 5078,
      "icious": 5079,
      "Ġexcell": 5080,
      "Ġpartners": 5081,
      "alled": 5082,
      "ĠPlan": 5083,
      "Ġgoods": 5084,
      "Ġscenar": 5085,
      "78": 5086,
      "ĠWork": 5087,
      "Ġimmune": 5088,
      "Ġrecognize": 5089,
      "iot": 5090,
      "inant": 5091,
      "enses": 5092,
      "],": 5093,
      "Ġfoss": 5094,
      "Ġvul": 5095,
      "cont": 5096,
      "ĠClass": 5097,
      "which": 5098,
      "Ġinterf": 5099,
      "ĠEmpire": 5100,
      "rations": 5101,
      "Ġsuggested": 5102,
      "ait": 5103,
      "Ġshowing": 5104,
      "Ġfollows": 5105,
      "ida": 5106,
      "Ġpurposes": 5107,
      "Ġtruly": 5108,
      "Ġoperating": 5109,
      "Ġenemy": 5110,
      "amil": 5111,
      "ocol": 5112,
      "eline": 5113,
      "ĠBro": 5114,
      "EC": 5115,
      "alse": 5116,
      "osm": 5117,
      "Ġvoice": 5118,
      "Ġfing": 5119,
      "Ġburn": 5120,
      "imal": 5121,
      "Ġworry": 5122,
      "Ġtexts": 5123,
      "Ġ80": 5124,
      "ĠHel": 5125,
      "ĠEff": 5126,
      "Ġremov": 5127,
      "Ġap": 5128,
      "ĠWhe": 5129,
      "ĠAssociation": 5130,
      "ET": 5131,
      "rum": 5132,
      "itz": 5133,
      "Ġ2003": 5134,
      "ounced": 5135,
      "being": 5136,
      "arrow": 5137,
      "stood": 5138,
      "Ġpul": 5139,
      "Ġkid": 5140,
      "rian": 5141,
      "Ġalcohol": 5142,
      "rome": 5143,
      "Ġvolume": 5144,
      "Ġsports": 5145,
      "ĠRead": 5146,
      "ession": 5147,
      "Ġsouthern": 5148,
      "ĠPython": 5149,
      "ĠUN": 5150,
      "Ġhour": 5151,
      "ams": 5152,
      "Ġcareful": 5153,
      "python": 5154,
      "isher": 5155,
      "Ġscript": 5156,
      "vert": 5157,
      "Ġnoted": 5158,
      "while": 5159,
      "Ġgarden": 5160,
      "Ġnotice": 5161,
      "ĠSer": 5162,
      "Ġpoet": 5163,
      "Ġcritic": 5164,
      "Ġtreated": 5165,
      "Ġtalking": 5166,
      "Ġmessages": 5167,
      "rac": 5168,
      "Ġregional": 5169,
      "ĠFre": 5170,
      "Ġintellect": 5171,
      "Ġplot": 5172,
      "Ġshif": 5173,
      "Ġotherwise": 5174,
      "Ġmostly": 5175,
      "Ġnetworks": 5176,
      "Ġsubjects": 5177,
      "Ġmotiv": 5178,
      "ĠIsland": 5179,
      "ourage": 5180,
      "ĠFood": 5181,
      "Ġquar": 5182,
      "Ġsudden": 5183,
      "vis": 5184,
      "ĠTex": 5185,
      "Ġspring": 5186,
      "ibl": 5187,
      "plicated": 5188,
      "Ġbed": 5189,
      "Ġimpl": 5190,
      "asp": 5191,
      "Ġsufficient": 5192,
      "rier": 5193,
      "Ġbone": 5194,
      "Ġtopic": 5195,
      "Ġerror": 5196,
      "ĠAmong": 5197,
      "Ġtum": 5198,
      "ĠSk": 5199,
      "pping": 5200,
      "Ġrepresentation": 5201,
      "Ġoccurred": 5202,
      "col": 5203,
      "Ġmyth": 5204,
      "ĠAtl": 5205,
      "ĠWind": 5206,
      "Ġsimpl": 5207,
      "Ġleader": 5208,
      "Ġera": 5209,
      "Ġobvious": 5210,
      "Ġpip": 5211,
      "Ġhol": 5212,
      "Ġremark": 5213,
      "Ġvariable": 5214,
      "rix": 5215,
      "ĠNum": 5216,
      "ears": 5217,
      "Ġhorse": 5218,
      "Ġacademic": 5219,
      "yles": 5220,
      "ĠOut": 5221,
      "Ġenable": 5222,
      "Ġpolitics": 5223,
      "Ġdouble": 5224,
      "text": 5225,
      "Ġserves": 5226,
      "Ġkinds": 5227,
      "Ġpictures": 5228,
      "Ġantib": 5229,
      "Ġchief": 5230,
      "Ġneut": 5231,
      "Ġsky": 5232,
      "ael": 5233,
      "Ġlabel": 5234,
      "icon": 5235,
      "Ġdisapp": 5236,
      "Ġparalle": 5237,
      "Ġsurgery": 5238,
      "Ġbaby": 5239,
      "Ġcircumst": 5240,
      "Ġdisorder": 5241,
      "Ġflood": 5242,
      "ĠThomas": 5243,
      "hent": 5244,
      "Ġthin": 5245,
      "ĠMiss": 5246,
      "ĠOrgan": 5247,
      "iety": 5248,
      "....": 5249,
      "Ġ186": 5250,
      "AL": 5251,
      "Ġtal": 5252,
      "oughly": 5253,
      "ĠNews": 5254,
      "Ġcareer": 5255,
      "ĠData": 5256,
      "Ġclim": 5257,
      "lease": 5258,
      "ĠSal": 5259,
      "ĠBC": 5260,
      "ogether": 5261,
      "Ġaddressing": 5262,
      "Ġcollaboration": 5263,
      "Ġmanip": 5264,
      "Ġmorning": 5265,
      "Ġincorporating": 5266,
      "Ġestimated": 5267,
      "ĠBer": 5268,
      "Ġpaint": 5269,
      "Ġgrass": 5270,
      "Ġclaims": 5271,
      "ocratic": 5272,
      "ya": 5273,
      "ĠAsia": 5274,
      "Ġhidden": 5275,
      "ĠPub": 5276,
      "ĠFound": 5277,
      "Ġcolumn": 5278,
      "inter": 5279,
      "Ġconservation": 5280,
      "Ġplayers": 5281,
      "ĠViet": 5282,
      "Ġrecorded": 5283,
      "',": 5284,
      "ĠIV": 5285,
      "ĠChapter": 5286,
      "ĠCentral": 5287,
      "roph": 5288,
      "ĠSen": 5289,
      "Ġcomponent": 5290,
      "Ġband": 5291,
      "Ġkm": 5292,
      "Ġsample": 5293,
      "asure": 5294,
      "olf": 5295,
      "Course": 5296,
      "Ġwife": 5297,
      "Ġroots": 5298,
      "Ġinterested": 5299,
      "Ġeggs": 5300,
      "Ġdistingu": 5301,
      "ĠStudents": 5302,
      "Ġdangerous": 5303,
      "Ġneighb": 5304,
      "Ġdepression": 5305,
      "Ġgal": 5306,
      "Ġinformed": 5307,
      "Ġwalls": 5308,
      "Ġsalt": 5309,
      "ĠCop": 5310,
      "Ġoffering": 5311,
      "Ġboundaries": 5312,
      "Ġhero": 5313,
      "tee": 5314,
      "Ġsecure": 5315,
      "Ġparticipants": 5316,
      "anges": 5317,
      "oxide": 5318,
      "Ġowners": 5319,
      "Ġ2014": 5320,
      "ĠThroughout": 5321,
      "Ġstaff": 5322,
      "ĠFore": 5323,
      "Ġdiss": 5324,
      "Ġelectrical": 5325,
      "75": 5326,
      "Ġfle": 5327,
      "Ġenab": 5328,
      "Ġmillions": 5329,
      "osite": 5330,
      "ĠMem": 5331,
      "Ġtraff": 5332,
      "Ġfacts": 5333,
      "lamm": 5334,
      "celer": 5335,
      "ĠMean": 5336,
      "Ġhearing": 5337,
      "Ġformal": 5338,
      "Ġfailure": 5339,
      "Ġrenew": 5340,
      "ĠCivil": 5341,
      "ĠPacific": 5342,
      "ifies": 5343,
      "Ġentirely": 5344,
      "Ġbroader": 5345,
      "EM": 5346,
      "Ġsend": 5347,
      "Ġdie": 5348,
      "Ġreform": 5349,
      "Ġbegins": 5350,
      "ĠVirgin": 5351,
      "Ġapparent": 5352,
      "Ġagree": 5353,
      "Ġextract": 5354,
      "Ġimmig": 5355,
      "Ġliquid": 5356,
      "Ġmotor": 5357,
      "Ġ90": 5358,
      "ĠDirect": 5359,
      "Ġinteractions": 5360,
      "Ġsoldiers": 5361,
      "tr": 5362,
      "Ġorganisms": 5363,
      "Ġprofessionals": 5364,
      "ĠRobert": 5365,
      "Ġsignals": 5366,
      "agon": 5367,
      "Ġoffered": 5368,
      "Ġappearance": 5369,
      "ĠDevelopment": 5370,
      "Ġmit": 5371,
      "Ġhunt": 5372,
      "stract": 5373,
      "Ġunderlying": 5374,
      "38": 5375,
      "bi": 5376,
      "Ġtun": 5377,
      "Ġgrav": 5378,
      "Step": 5379,
      "'d": 5380,
      "ĠMil": 5381,
      "ĠSpace": 5382,
      "ĠBat": 5383,
      "Ġencourage": 5384,
      "ĠUK": 5385,
      "Ġmatters": 5386,
      "icit": 5387,
      "ĠElect": 5388,
      "Ġobst": 5389,
      "Ġtechnical": 5390,
      "Ġgained": 5391,
      "roup": 5392,
      "ĠYet": 5393,
      "erving": 5394,
      "Ġarticles": 5395,
      "ĠCouncil": 5396,
      "ĠDiv": 5397,
      "ĠColle": 5398,
      "Ġtitle": 5399,
      "atever": 5400,
      "iform": 5401,
      "Ġresist": 5402,
      "ĠSpec": 5403,
      "\")": 5404,
      "well": 5405,
      "ĠCurrent": 5406,
      "36": 5407,
      "nel": 5408,
      "Ġcreates": 5409,
      "Ġmechanisms": 5410,
      "ĠPract": 5411,
      "Ġdiscipl": 5412,
      "Ġnearby": 5413,
      "Ġdivided": 5414,
      "ĠStand": 5415,
      "Ġformat": 5416,
      "ĠBudd": 5417,
      "ĠIdent": 5418,
      "Ġraised": 5419,
      "Ġ2002": 5420,
      "Ġnutrition": 5421,
      "Ġmaximum": 5422,
      "itors": 5423,
      "Ġbud": 5424,
      "Ġannual": 5425,
      "Ġtaught": 5426,
      "Ġcollege": 5427,
      "ĠSoviet": 5428,
      "Ġemissions": 5429,
      "ĠCanadian": 5430,
      "pet": 5431,
      "Ġphr": 5432,
      "Ġcontrolled": 5433,
      "Ġbrief": 5434,
      "Ġlinks": 5435,
      "Ġvent": 5436,
      "Ġfluid": 5437,
      "Ġfif": 5438,
      "Ġyouth": 5439,
      "Ġindicate": 5440,
      "Ġrow": 5441,
      "obe": 5442,
      "Ġshapes": 5443,
      "Ġexposed": 5444,
      "Ġproperly": 5445,
      "Ġecosystem": 5446,
      "bing": 5447,
      "Ġintended": 5448,
      "Ġindeed": 5449,
      "ÃŃ": 5450,
      "ĠTime": 5451,
      "under": 5452,
      "Ġhorm": 5453,
      "Ġalign": 5454,
      "Ġconsists": 5455,
      "Ġcertainly": 5456,
      "Ġsubstant": 5457,
      "Ġinnovative": 5458,
      "ĠHenry": 5459,
      ".'": 5460,
      "100": 5461,
      "ctic": 5462,
      "Ġlic": 5463,
      "what": 5464,
      "ĠGovernment": 5465,
      "cyclop": 5466,
      "level": 5467,
      "wood": 5468,
      "Ġtow": 5469,
      "ij": 5470,
      "Ġunex": 5471,
      "Ġappeared": 5472,
      "Ġphase": 5473,
      "ĠCourt": 5474,
      "Ġpus": 5475,
      "Ġacts": 5476,
      "Ġdiabetes": 5477,
      "Ġgovernments": 5478,
      "Ġaccompl": 5479,
      "Ġeast": 5480,
      "Ġaimed": 5481,
      "Ġcomments": 5482,
      "Ġlinked": 5483,
      "stein": 5484,
      "Ġexperts": 5485,
      "ĠProgram": 5486,
      "des": 5487,
      "rors": 5488,
      "active": 5489,
      "Ġconclud": 5490,
      "Ġsupported": 5491,
      "Ġprompt": 5492,
      "Ġimpacts": 5493,
      "ĠDesign": 5494,
      "Ġconducted": 5495,
      "Ġsettings": 5496,
      "ĠCatholic": 5497,
      "tra": 5498,
      "body": 5499,
      "Ġlisten": 5500,
      "Ġ35": 5501,
      "Ġbright": 5502,
      "Ġdiscussions": 5503,
      "Ġsettle": 5504,
      "Ġmoral": 5505,
      "uous": 5506,
      "Ġoption": 5507,
      "ĠGet": 5508,
      "Ġvulner": 5509,
      "BN": 5510,
      "icy": 5511,
      "Ġhousehold": 5512,
      "39": 5513,
      "Ġpages": 5514,
      "Ġfell": 5515,
      "ago": 5516,
      "Ġ70": 5517,
      "Ġlargely": 5518,
      "alian": 5519,
      "Ġlik": 5520,
      "add": 5521,
      "Ġunlike": 5522,
      "ificial": 5523,
      "uh": 5524,
      "Ġsnow": 5525,
      "Ġrig": 5526,
      "Ġtheore": 5527,
      "Ġknowing": 5528,
      "Ġguidelines": 5529,
      "Ġmamm": 5530,
      "Ġreci": 5531,
      "Ġpure": 5532,
      "Ġanswers": 5533,
      "orous": 5534,
      "Ġclinical": 5535,
      "Ġtroops": 5536,
      "gra": 5537,
      "Ġloved": 5538,
      "ĠJer": 5539,
      "Ġresilience": 5540,
      "empl": 5541,
      "ciences": 5542,
      "berg": 5543,
      "Ġopening": 5544,
      "Ġremaining": 5545,
      "ĠPhot": 5546,
      "Ġvillage": 5547,
      "band": 5548,
      "Ġod": 5549,
      "ĠGood": 5550,
      "Ġderived": 5551,
      "Ġstation": 5552,
      "ects": 5553,
      "Ġclosed": 5554,
      "Ġspeaking": 5555,
      "Ġmolecules": 5556,
      "Ġdatab": 5557,
      "lers": 5558,
      "rat": 5559,
      "ĠJud": 5560,
      "Ġdepos": 5561,
      "Ġphysics": 5562,
      "Ġcollective": 5563,
      "Ġdynamics": 5564,
      "uilding": 5565,
      "la": 5566,
      "Ġbiological": 5567,
      "Ġincredible": 5568,
      "OT": 5569,
      "ĠMo": 5570,
      "Ġbreast": 5571,
      "Ġliterary": 5572,
      "Ġingredients": 5573,
      "Ġarrived": 5574,
      "34": 5575,
      "Ġcognitive": 5576,
      "ville": 5577,
      "Ġmoon": 5578,
      "ĠFind": 5579,
      "Ġplastic": 5580,
      "Ġcircumstances": 5581,
      "iate": 5582,
      "ĠTreat": 5583,
      "Ġtells": 5584,
      "ĠMake": 5585,
      "ĠWhere": 5586,
      "aks": 5587,
      "ĠModern": 5588,
      "Ġthor": 5589,
      "ĠBet": 5590,
      "appy": 5591,
      "Ġmanner": 5592,
      "Ġrail": 5593,
      "Ġasking": 5594,
      "Ġconsistent": 5595,
      "32": 5596,
      "ns": 5597,
      "Ġtrain": 5598,
      "apping": 5599,
      "ĠAnsw": 5600,
      "Ġpositions": 5601,
      "ĠThose": 5602,
      "Ġschem": 5603,
      "Ġcouldn": 5604,
      "ĠProject": 5605,
      "Ġequival": 5606,
      "Ġrecognized": 5607,
      "][": 5608,
      "ĠMass": 5609,
      "Ġ189": 5610,
      "As": 5611,
      "ST": 5612,
      "Ġdu": 5613,
      "racy": 5614,
      "ĠFollow": 5615,
      "Ġimplications": 5616,
      "Ġacknow": 5617,
      "Ġsupporting": 5618,
      "ictionary": 5619,
      "inet": 5620,
      "Ġbehaviors": 5621,
      "aturally": 5622,
      "ĠMexico": 5623,
      "Ġvegetables": 5624,
      "Ġintelligence": 5625,
      "tering": 5626,
      "Ġ1990": 5627,
      "win": 5628,
      "Ġtoxic": 5629,
      "Ġmachines": 5630,
      "oper": 5631,
      "Ġunderstood": 5632,
      "Ġmassive": 5633,
      "Ġpra": 5634,
      "Ġcreatures": 5635,
      "Ġdomestic": 5636,
      "Ġaf": 5637,
      "ested": 5638,
      "Ġsolve": 5639,
      "Ġseemed": 5640,
      "log": 5641,
      "Ġvibr": 5642,
      "ultane": 5643,
      "Ġ2001": 5644,
      "ĠTre": 5645,
      "throp": 5646,
      "ĠArmy": 5647,
      "Ġstruggle": 5648,
      "ĠMain": 5649,
      "ansion": 5650,
      "Ġlesson": 5651,
      "ircraft": 5652,
      "alysis": 5653,
      "Ġexploration": 5654,
      "Ġpolice": 5655,
      "Ġorganic": 5656,
      "roid": 5657,
      "ĠCompany": 5658,
      "Ġsentence": 5659,
      "Ġfoster": 5660,
      "gal": 5661,
      "ado": 5662,
      "Ġuns": 5663,
      "Ġamb": 5664,
      "mary": 5665,
      "ĠHome": 5666,
      "aker": 5667,
      "Ġelectron": 5668,
      "Ġstronger": 5669,
      "Ġabsolute": 5670,
      "Ġdescription": 5671,
      "Ġappreciation": 5672,
      "Ġmagnetic": 5673,
      "ht": 5674,
      "Ġrac": 5675,
      "Ġphone": 5676,
      "Ġhundreds": 5677,
      "Ġcredit": 5678,
      "Ġshift": 5679,
      "Ġmanufacture": 5680,
      "Ġdedicated": 5681,
      "riers": 5682,
      "ĠEnergy": 5683,
      "inity": 5684,
      "ifications": 5685,
      "ĠCollege": 5686,
      "Ġmixed": 5687,
      "Ġbird": 5688,
      "using": 5689,
      "osa": 5690,
      "Ġchemicals": 5691,
      "gl": 5692,
      "Ġfirm": 5693,
      "tion": 5694,
      "ĠBack": 5695,
      "Ġtypical": 5696,
      ".@": 5697,
      "chers": 5698,
      "ĠMag": 5699,
      "itual": 5700,
      "Ġexists": 5701,
      "ĠEconom": 5702,
      "Ġextent": 5703,
      "Ġmarked": 5704,
      "Ġprogramming": 5705,
      "Ġsocietal": 5706,
      "AM": 5707,
      "Ġslowly": 5708,
      "ĠSet": 5709,
      "Ġchosen": 5710,
      "ĠJava": 5711,
      "word": 5712,
      "Ġwalking": 5713,
      "orrow": 5714,
      "Ġmedium": 5715,
      "Ġ@.@": 5716,
      "Ġwestern": 5717,
      "Ġstock": 5718,
      "anguage": 5719,
      "Ġleadership": 5720,
      "Ġcandid": 5721,
      "Ġimpossible": 5722,
      "Ġ31": 5723,
      "Ġchart": 5724,
      "ĠTer": 5725,
      "Ġstret": 5726,
      "Ġyield": 5727,
      "eer": 5728,
      "Ġstored": 5729,
      "Ġprices": 5730,
      "Ġdesired": 5731,
      "Ġmountain": 5732,
      "Ġbill": 5733,
      "Ġperce": 5734,
      "âĢĿ.": 5735,
      "Ġemail": 5736,
      "erves": 5737,
      "Ġdepends": 5738,
      "Ġinspired": 5739,
      "west": 5740,
      "Ġdocuments": 5741,
      "Ġadventure": 5742,
      "ĠOpen": 5743,
      "rete": 5744,
      "Ġperman": 5745,
      "Ġstudied": 5746,
      "Ġrealized": 5747,
      "Ġhappy": 5748,
      "ĠMicro": 5749,
      "field": 5750,
      "ĠDet": 5751,
      "Ġproducing": 5752,
      "Ġdiscussed": 5753,
      "fall": 5754,
      "Ġmarine": 5755,
      "37": 5756,
      "Ġgrew": 5757,
      "Ġ188": 5758,
      "Ġimproving": 5759,
      "Ġlatter": 5760,
      "Ġsin": 5761,
      "ĠTexas": 5762,
      "eria": 5763,
      "Ġpaid": 5764,
      "Ġguess": 5765,
      "Ġastron": 5766,
      "OU": 5767,
      "ĠBre": 5768,
      "Ġreprodu": 5769,
      "Ġdefe": 5770,
      "ĠChildren": 5771,
      "Ġdoor": 5772,
      "Ġclassroom": 5773,
      "Ġcooking": 5774,
      "Ġmonitoring": 5775,
      "ĠLong": 5776,
      "ĠOh": 5777,
      "Ġmemb": 5778,
      "ĠSea": 5779,
      "ĠTechnology": 5780,
      "Ġexperiments": 5781,
      "utive": 5782,
      "Ġchronic": 5783,
      "Ġvariables": 5784,
      "imens": 5785,
      "Ġrepresented": 5786,
      "Ġphilosophy": 5787,
      "Ġtheories": 5788,
      "ĠThough": 5789,
      "Ġkil": 5790,
      "Ġrestrict": 5791,
      "ĠSmith": 5792,
      "lar": 5793,
      "Ġwarming": 5794,
      "Ġtreatments": 5795,
      "Ġvitamin": 5796,
      "RI": 5797,
      "Ġlung": 5798,
      "ĠLou": 5799,
      "Welcome": 5800,
      "icing": 5801,
      "Ġath": 5802,
      "Ġdri": 5803,
      "ĠPower": 5804,
      "ĠLord": 5805,
      "Ġcrim": 5806,
      "Ġchain": 5807,
      "ĠSum": 5808,
      "ĠCam": 5809,
      "Ġindigenous": 5810,
      "Ġnoise": 5811,
      "DA": 5812,
      "war": 5813,
      "ĠNon": 5814,
      "Ġmatch": 5815,
      "Ġpowers": 5816,
      "ĠFigure": 5817,
      "ĠNet": 5818,
      "Ġinteraction": 5819,
      "ĠQuest": 5820,
      "Ġjoin": 5821,
      "ĠCreat": 5822,
      "ĠBible": 5823,
      "Ġinterview": 5824,
      "Ġengagement": 5825,
      "Ġprinciple": 5826,
      "Ġratio": 5827,
      "ĠISBN": 5828,
      "Ġstone": 5829,
      "ĠEst": 5830,
      "Ġunless": 5831,
      "Ġcompleted": 5832,
      "ĠAtt": 5833,
      "Ġdeliver": 5834,
      "edy": 5835,
      "ĠForm": 5836,
      "Ġresol": 5837,
      "ĠSte": 5838,
      "Ġedge": 5839,
      "Ġmuscles": 5840,
      "Ġnavigate": 5841,
      "Ġbeauty": 5842,
      "Ġwisdom": 5843,
      "ĠVietn": 5844,
      "Ġsmart": 5845,
      "Ġpersons": 5846,
      "Ġcreativity": 5847,
      "Ġideal": 5848,
      "ĠExper": 5849,
      "Ġmort": 5850,
      "Ġselection": 5851,
      "iability": 5852,
      "Ġfly": 5853,
      "ĠNorthern": 5854,
      "Ġacceler": 5855,
      "Ġstanding": 5856,
      "Ġportion": 5857,
      "down": 5858,
      "ml": 5859,
      "stream": 5860,
      "Ġinnovation": 5861,
      "Ġfant": 5862,
      "Ġhelpful": 5863,
      "Ġdepth": 5864,
      "name": 5865,
      "Ġahead": 5866,
      "Ġinner": 5867,
      "ĠDist": 5868,
      "Ġcalls": 5869,
      "Ġgreatest": 5870,
      "Ġsell": 5871,
      "Ġpark": 5872,
      "Ġaffects": 5873,
      "ĠPers": 5874,
      "ĠDel": 5875,
      "ashion": 5876,
      "Ġsensitive": 5877,
      "itudes": 5878,
      "hus": 5879,
      "Ġspend": 5880,
      "Ġmanaged": 5881,
      "Ġfighting": 5882,
      "Ġtrends": 5883,
      "Ġemployed": 5884,
      "Ġresponses": 5885,
      "Ġwitness": 5886,
      "rust": 5887,
      "ĠNative": 5888,
      "Ġcuriosity": 5889,
      "Ġturns": 5890,
      "Ġviews": 5891,
      "Ġcutting": 5892,
      "ĠService": 5893,
      "Ġstated": 5894,
      "Ġstem": 5895,
      "Ġimper": 5896,
      "Ġsurf": 5897,
      "eles": 5898,
      "Ġthereby": 5899,
      "Ġfoundation": 5900,
      "Ġconsult": 5901,
      "Ġpersist": 5902,
      "Ġdeeply": 5903,
      "Ġconcer": 5904,
      "Ġtouch": 5905,
      "Ġdecide": 5906,
      "Ġsatell": 5907,
      "Ġquantum": 5908,
      "Ġexcellent": 5909,
      "mas": 5910,
      "Ġdefense": 5911,
      "Ġfarmers": 5912,
      "Ġnarrow": 5913,
      "ĠGal": 5914,
      "cal": 5915,
      "ye": 5916,
      "Ġtherm": 5917,
      "ician": 5918,
      "Ġprove": 5919,
      "ĠWomen": 5920,
      "Ġensures": 5921,
      "Ġretain": 5922,
      "Ġabilities": 5923,
      "Ġusage": 5924,
      "Ġsole": 5925,
      "Ġwait": 5926,
      "Ġsed": 5927,
      "Ġwants": 5928,
      "Ġstarts": 5929,
      "Ġguidance": 5930,
      "Ġpair": 5931,
      "rics": 5932,
      "Ġcars": 5933,
      "Ġwriters": 5934,
      "48": 5935,
      "ĠTop": 5936,
      "ĠBook": 5937,
      "Ġclust": 5938,
      "ĠEnc": 5939,
      "Ġvirtual": 5940,
      "kes": 5941,
      "ola": 5942,
      "ĠRob": 5943,
      "Ġexciting": 5944,
      "Ã³": 5945,
      "abil": 5946,
      "ĠLook": 5947,
      "Ġdogs": 5948,
      "ĠGold": 5949,
      "Ġfacing": 5950,
      "Ġinjury": 5951,
      "Ġdoctors": 5952,
      "Ġsocieties": 5953,
      "iated": 5954,
      "pat": 5955,
      "oted": 5956,
      "ĠPM": 5957,
      "Ġ45": 5958,
      "Ġtaste": 5959,
      "cription": 5960,
      "ĠReview": 5961,
      "ĠExamples": 5962,
      "Ġorganized": 5963,
      "Ġconscious": 5964,
      "Ġcompetition": 5965,
      "aming": 5966,
      "ĠInformation": 5967,
      "bert": 5968,
      "Ġzero": 5969,
      "Ġjobs": 5970,
      "rays": 5971,
      "ĠCare": 5972,
      "Ġdynamic": 5973,
      "ĠCharles": 5974,
      "ĠCD": 5975,
      "Ġempathy": 5976,
      "eal": 5977,
      "rants": 5978,
      "ii": 5979,
      "ĠCy": 5980,
      "Ġinvestig": 5981,
      "Ġmeaningful": 5982,
      "Ġplatforms": 5983,
      "icks": 5984,
      "elled": 5985,
      "Ġmainly": 5986,
      "hered": 5987,
      "Ġcatch": 5988,
      "Ġappoint": 5989,
      "Ġnewsp": 5990,
      "Ġcorpor": 5991,
      "Ġnegot": 5992,
      "ĠProfess": 5993,
      "SS": 5994,
      "ĠKnow": 5995,
      "Ġvisible": 5996,
      "Ġsurvive": 5997,
      "Ġstands": 5998,
      "Ġyellow": 5999,
      "ĠVis": 6000,
      "Ġattacks": 6001,
      "Ġindex": 6002,
      "ĠEarly": 6003,
      "rey": 6004,
      "Ġheritage": 6005,
      "Ġopened": 6006,
      "Ġintricate": 6007,
      "van": 6008,
      "ĠTH": 6009,
      "ĠSign": 6010,
      "Ġenables": 6011,
      "Ġalongside": 6012,
      "verty": 6013,
      "Ġmeasured": 6014,
      "ĠMont": 6015,
      "Ġcurious": 6016,
      "Ġhandle": 6017,
      "isis": 6018,
      "Ġbrown": 6019,
      "ĠMuseum": 6020,
      "asts": 6021,
      "Ġfib": 6022,
      "Ġpoverty": 6023,
      "Ġelev": 6024,
      "Ġethnic": 6025,
      "ĠCho": 6026,
      "Ġdiscrimination": 6027,
      "ipedia": 6028,
      "Ġwhereas": 6029,
      "Ġintellectual": 6030,
      "hand": 6031,
      "Ġfellow": 6032,
      "ĠBay": 6033,
      "ocracy": 6034,
      "ĠFin": 6035,
      "________": 6036,
      "Ġforth": 6037,
      "Ġarts": 6038,
      "ĠStr": 6039,
      "Ġauthent": 6040,
      "ndrome": 6041,
      "Ġdance": 6042,
      "46": 6043,
      "Al": 6044,
      "Ġnan": 6045,
      "ocation": 6046,
      "Ġtrial": 6047,
      "Ġminimum": 6048,
      "ĠPop": 6049,
      "Ġnoticed": 6050,
      "Ġdiam": 6051,
      "Ġethical": 6052,
      "Ġsick": 6053,
      "Ġhyper": 6054,
      "Ġprofessor": 6055,
      "Ġagricultural": 6056,
      "Ġlots": 6057,
      "ensus": 6058,
      "Ġadvice": 6059,
      "Ġhouses": 6060,
      "Ġassemb": 6061,
      "ĠPsych": 6062,
      "Ġships": 6063,
      "Ġselected": 6064,
      "ĠRevolution": 6065,
      "iday": 6066,
      "ĠRad": 6067,
      "Ġobl": 6068,
      "Ġsuc": 6069,
      "Ġdriving": 6070,
      "Ġneighbor": 6071,
      "ĠMa": 6072,
      "ĠHIV": 6073,
      "Ġgenerated": 6074,
      "ĠExample": 6075,
      "Ġsuccessfully": 6076,
      "Ġfruits": 6077,
      "Ġreject": 6078,
      "Ġpassion": 6079,
      "ĠAcadem": 6080,
      "Ġofficials": 6081,
      "ĠProv": 6082,
      "Ġfailed": 6083,
      "Ġemerging": 6084,
      "with": 6085,
      "Ġpray": 6086,
      "Ġtransition": 6087,
      "Ġbroken": 6088,
      "Ġcapture": 6089,
      "Ġweapons": 6090,
      "Ġfold": 6091,
      "Ġadap": 6092,
      "Ġwear": 6093,
      "Ġgrown": 6094,
      "Ġtap": 6095,
      "Ġteeth": 6096,
      "Ġinstruction": 6097,
      "Ġrepeated": 6098,
      "99": 6099,
      "Ġrelax": 6100,
      "Ġconstit": 6101,
      "ĠStat": 6102,
      "Ġexplanation": 6103,
      "You": 6104,
      "isation": 6105,
      "Ġfab": 6106,
      "Ġscene": 6107,
      "Ġextended": 6108,
      "Ġsongs": 6109,
      "Ġexplo": 6110,
      "Ġconsidering": 6111,
      "Ġelectronic": 6112,
      "Ġcomplexity": 6113,
      "Ġprocedures": 6114,
      "icate": 6115,
      "Ġcomposition": 6116,
      "Ġcommunicate": 6117,
      "Ġfloor": 6118,
      "Ġepis": 6119,
      "Ġsusp": 6120,
      "Ġseeds": 6121,
      "Ġholds": 6122,
      "Ġsamples": 6123,
      "oking": 6124,
      "Ġshell": 6125,
      "ĠGoogle": 6126,
      "itutional": 6127,
      "point": 6128,
      "tenance": 6129,
      "Ġsimultane": 6130,
      "lines": 6131,
      "Ġamid": 6132,
      "Ġemerged": 6133,
      "Ġopinion": 6134,
      "Ġreactions": 6135,
      "ĠMedicine": 6136,
      "76": 6137,
      "onym": 6138,
      "orses": 6139,
      "Ġseeing": 6140,
      "Ġ185": 6141,
      "Ġoriginally": 6142,
      "such": 6143,
      "Ġstick": 6144,
      "ĠCa": 6145,
      "ĠNature": 6146,
      "ĠOnly": 6147,
      "Ġcrisis": 6148,
      "uracy": 6149,
      "ĠFranc": 6150,
      "Ġaircraft": 6151,
      "Ġarchitecture": 6152,
      "po": 6153,
      "ĠDiff": 6154,
      "Ġtechnological": 6155,
      "Ġdesigns": 6156,
      "Ġsurvival": 6157,
      "ĠFlor": 6158,
      "Ġagreed": 6159,
      "Ġmoist": 6160,
      "Ġalle": 6161,
      "Ġnaturally": 6162,
      "Ġshel": 6163,
      "ipping": 6164,
      "Ġmarriage": 6165,
      "Ġcouple": 6166,
      "RE": 6167,
      "Ġunus": 6168,
      "Ġunknown": 6169,
      "Ġunexpected": 6170,
      "Ġwid": 6171,
      "Ġindu": 6172,
      "Ġstages": 6173,
      "Ġmanaging": 6174,
      "Ġstyles": 6175,
      "Ġinvestment": 6176,
      "ĠMedical": 6177,
      "Ġexpressed": 6178,
      "aser": 6179,
      "Ġbond": 6180,
      "eless": 6181,
      "ĠFact": 6182,
      "Ġimplementation": 6183,
      "do": 6184,
      "ude": 6185,
      "ĠJose": 6186,
      "Ġremote": 6187,
      "Ġmathematical": 6188,
      "Ġstrict": 6189,
      "Ġdepict": 6190,
      "Ġdust": 6191,
      "Ġ1999": 6192,
      "ka": 6193,
      "Ġfalse": 6194,
      "Ġregularly": 6195,
      "Ġcontinuous": 6196,
      "Ġclub": 6197,
      "section": 6198,
      "Ġaer": 6199,
      "Ġbeings": 6200,
      "Ġneur": 6201,
      "ĠCommission": 6202,
      "ĠKingdom": 6203,
      "Ġprocedure": 6204,
      "PS": 6205,
      "road": 6206,
      "erent": 6207,
      "Ġthanks": 6208,
      "ĠProp": 6209,
      "Ġlimits": 6210,
      "Ġfixed": 6211,
      "py": 6212,
      "ishes": 6213,
      "Ġinherent": 6214,
      "Ġlose": 6215,
      "Ġprofound": 6216,
      "Ġaudience": 6217,
      "ersonal": 6218,
      "ĠFrank": 6219,
      "Ġraise": 6220,
      "Ġsen": 6221,
      "ĠRichard": 6222,
      "Ġrub": 6223,
      "Ġdrawn": 6224,
      ",@": 6225,
      "Ġdut": 6226,
      "ĠOrig": 6227,
      "Ġtoler": 6228,
      "Ġoverl": 6229,
      "ĠMaybe": 6230,
      "ĠSarah": 6231,
      "Ġhus": 6232,
      "Ġwouldn": 6233,
      "Ġskill": 6234,
      "Ġwindow": 6235,
      "Ġconventional": 6236,
      "bum": 6237,
      "Ġassistance": 6238,
      "Ġrecommended": 6239,
      "peror": 6240,
      "Ġ@,@": 6241,
      "Ġbones": 6242,
      "Ġpossibly": 6243,
      "ĠStudies": 6244,
      "Ġinfections": 6245,
      "Ġnotable": 6246,
      "ĠHistorical": 6247,
      "cium": 6248,
      "phone": 6249,
      "Ġblog": 6250,
      "Ġsupplies": 6251,
      "ĠVirginia": 6252,
      "ĠÎ": 6253,
      "ĠDan": 6254,
      "Ġsought": 6255,
      "Ġjump": 6256,
      "Ġtraffic": 6257,
      "ĠAst": 6258,
      "raction": 6259,
      "Ġflight": 6260,
      "Ġanxiety": 6261,
      "ki": 6262,
      "Ġpull": 6263,
      "Ġalike": 6264,
      "ective": 6265,
      "gency": 6266,
      "ĠDoes": 6267,
      "inf": 6268,
      "Ġwet": 6269,
      "Ġregulations": 6270,
      "Ġdemonstrate": 6271,
      "How": 6272,
      "ato": 6273,
      "ighter": 6274,
      "Ġarguments": 6275,
      "Ġobservations": 6276,
      "Ġsuitable": 6277,
      "Ġshot": 6278,
      "Ġheavily": 6279,
      "ĠStudy": 6280,
      "Ġintervention": 6281,
      "Ġcontrovers": 6282,
      "Ġlearners": 6283,
      "Ġexpensive": 6284,
      "Ġserver": 6285,
      "Ġassessment": 6286,
      "Ġpollution": 6287,
      "ras": 6288,
      "ship": 6289,
      "Ġauthorities": 6290,
      "writ": 6291,
      "Ġinitially": 6292,
      "ittle": 6293,
      "Ġinvent": 6294,
      "Ġrealm": 6295,
      "Ġsubstance": 6296,
      "Ġinstructions": 6297,
      "Ġdoubt": 6298,
      "Ġ%": 6299,
      "inction": 6300,
      "Ġflowers": 6301,
      "ache": 6302,
      "osh": 6303,
      "Ġenthus": 6304,
      "Ġ1998": 6305,
      "Ġcombat": 6306,
      "If": 6307,
      "Ġpossibility": 6308,
      "Ġcraft": 6309,
      "Ġparallel": 6310,
      "Ġaqu": 6311,
      "Ġrural": 6312,
      "Ġfunctional": 6313,
      "Ġdebate": 6314,
      "otes": 6315,
      "ĠHappy": 6316,
      "Ġabuse": 6317,
      "Ġnecessarily": 6318,
      "rastructure": 6319,
      "49": 6320,
      "Ġforget": 6321,
      "oples": 6322,
      "Ġreson": 6323,
      "Ġsubs": 6324,
      "Ġlocations": 6325,
      "Ġdestroyed": 6326,
      "hist": 6327,
      "Ġnit": 6328,
      "Ġadequ": 6329,
      "Ġclick": 6330,
      "Ġ2015": 6331,
      "Ġconcerned": 6332,
      "Ġplease": 6333,
      "Ġhospital": 6334,
      "))": 6335,
      "Ġske": 6336,
      "istan": 6337,
      "agues": 6338,
      "Ġnormally": 6339,
      "Ġcrops": 6340,
      "Ġpig": 6341,
      "Ġbear": 6342,
      "teries": 6343,
      "ĠMill": 6344,
      "ĠHT": 6345,
      "Ġjoined": 6346,
      "Ġangle": 6347,
      "ini": 6348,
      "Ġwire": 6349,
      "ĠItalian": 6350,
      "Ġflour": 6351,
      "Ġtit": 6352,
      "ctive": 6353,
      "ulum": 6354,
      "ĠPo": 6355,
      "Ġplate": 6356,
      "Ġcorn": 6357,
      "Ġhabitat": 6358,
      "Ġcomplicated": 6359,
      "Ġprev": 6360,
      "Ġmode": 6361,
      "198": 6362,
      "ropical": 6363,
      "Ġholding": 6364,
      "ĠBrown": 6365,
      "Ġ36": 6366,
      "Ġthousand": 6367,
      "Ġrecognition": 6368,
      "Ġbread": 6369,
      "Ġinhib": 6370,
      "Ġdin": 6371,
      "sequent": 6372,
      "Ġdrinking": 6373,
      "Ġfossil": 6374,
      "rid": 6375,
      "zen": 6376,
      "Ġequation": 6377,
      "Ġ1980": 6378,
      "Ġdetailed": 6379,
      "ĠWild": 6380,
      "ĠNatural": 6381,
      "othe": 6382,
      "Ġmanif": 6383,
      "Ġartistic": 6384,
      "gments": 6385,
      "Ġpursu": 6386,
      "Ġmoves": 6387,
      "Ġequivalent": 6388,
      "Ġtall": 6389,
      "Ġwise": 6390,
      "Ġjoint": 6391,
      "ĠUnf": 6392,
      "Ġpainting": 6393,
      "ĠParis": 6394,
      "Ġproof": 6395,
      "Ġimmediate": 6396,
      "net": 6397,
      "Ġtwenty": 6398,
      "Ġlib": 6399,
      "ptions": 6400,
      "Ġassume": 6401,
      "Ġfacilities": 6402,
      "Ġdescribes": 6403,
      "Ġharmful": 6404,
      "Ġfeedback": 6405,
      "Ġstrengt": 6406,
      "Ġanalyze": 6407,
      "Ġindependence": 6408,
      "cher": 6409,
      "Ġafford": 6410,
      "Ġreplaced": 6411,
      "Ġoptimal": 6412,
      "ona": 6413,
      "Ġmetab": 6414,
      "Ġopposite": 6415,
      "Ġeastern": 6416,
      "Ġment": 6417,
      "ih": 6418,
      "long": 6419,
      "craft": 6420,
      "rine": 6421,
      "oral": 6422,
      "Ġwhatever": 6423,
      "Ġeveryday": 6424,
      "Ġcategories": 6425,
      "Ġalgorithm": 6426,
      "Ġgall": 6427,
      "Ġagriculture": 6428,
      "Ġinches": 6429,
      "Ġattend": 6430,
      "Ġinstruments": 6431,
      "fish": 6432,
      "Ġadopted": 6433,
      "cyclopedia": 6434,
      "iology": 6435,
      "Ġgeomet": 6436,
      "MS": 6437,
      "ey": 6438,
      "pread": 6439,
      "ĠThanks": 6440,
      "ĠReal": 6441,
      "Ġpassage": 6442,
      "Ġmechanism": 6443,
      "Ġcart": 6444,
      "Ġexamination": 6445,
      "Ġsupposed": 6446,
      "Ġsecondary": 6447,
      "Ġargue": 6448,
      "Ġexpressions": 6449,
      "ĠList": 6450,
      "ĠParty": 6451,
      "Ġrhyth": 6452,
      "Ġpil": 6453,
      "ĠSat": 6454,
      "Ġcomprehensive": 6455,
      "liam": 6456,
      "Ġstable": 6457,
      "Ġspok": 6458,
      "ĠOcean": 6459,
      "Ġreduction": 6460,
      "Ġdaughter": 6461,
      "Ġresolution": 6462,
      "Ġengaged": 6463,
      "Ġnutrients": 6464,
      "Ġnone": 6465,
      "Ġ(\"": 6466,
      "ĠJo": 6467,
      "Ġrocks": 6468,
      "Ġcrime": 6469,
      "cope": 6470,
      "erior": 6471,
      "roke": 6472,
      "ĠRome": 6473,
      "aked": 6474,
      "angle": 6475,
      "Ġoccasion": 6476,
      "Ġsucceed": 6477,
      "asters": 6478,
      "Ġsymbols": 6479,
      "orter": 6480,
      "lets": 6481,
      "Ġtransp": 6482,
      "Ġmusical": 6483,
      "Ġdemonstrated": 6484,
      "Ġobtained": 6485,
      "Ġattached": 6486,
      "Ġinsects": 6487,
      "Ġremarkable": 6488,
      "Ġchrom": 6489,
      "ĠColl": 6490,
      "oding": 6491,
      "that": 6492,
      "Ġprem": 6493,
      "Ġsurvey": 6494,
      "idespread": 6495,
      "Ġnucle": 6496,
      "irty": 6497,
      "Ġmarg": 6498,
      "ena": 6499,
      "Ġrely": 6500,
      "ĠTom": 6501,
      "44": 6502,
      "normal": 6503,
      "ups": 6504,
      "Ãĥ": 6505,
      "Ġfav": 6506,
      "Ġbind": 6507,
      "Ġaccuracy": 6508,
      "Ġdioxide": 6509,
      "Ġcollected": 6510,
      "ĠCarol": 6511,
      "Ġnavigation": 6512,
      "Ġsections": 6513,
      "Ġgalax": 6514,
      "eenth": 6515,
      "Ġid": 6516,
      "ĠST": 6517,
      "Ġrecovery": 6518,
      "Ġhur": 6519,
      "Ġnob": 6520,
      "Ġstuff": 6521,
      "ĠRights": 6522,
      "Ġtherap": 6523,
      "Ġgone": 6524,
      "Ġexplains": 6525,
      "Ġflo": 6526,
      "Ġconfidence": 6527,
      "Ġtransportation": 6528,
      "Ġevolved": 6529,
      "Ġdialogue": 6530,
      "Ġhydrogen": 6531,
      "Ġvolt": 6532,
      "inite": 6533,
      "Ġdrop": 6534,
      "Ġ1970": 6535,
      "arity": 6536,
      "Ġmyster": 6537,
      "Ġinsight": 6538,
      "Ġexpansion": 6539,
      "Ġpoem": 6540,
      "Ġreturns": 6541,
      "ĠMult": 6542,
      "ĠRom": 6543,
      "Ġregul": 6544,
      "Ġaccounts": 6545,
      "Ġhypothes": 6546,
      "ĠEth": 6547,
      "ĠLand": 6548,
      "spec": 6549,
      "Ar": 6550,
      "no": 6551,
      "ĠAut": 6552,
      "Ġmarkets": 6553,
      "Ġsweet": 6554,
      "vance": 6555,
      "ĠAp": 6556,
      "anta": 6557,
      "Ġhaz": 6558,
      "Ġplayer": 6559,
      "Ġembark": 6560,
      "CC": 6561,
      "etime": 6562,
      "ĠAN": 6563,
      "amily": 6564,
      "ĠBal": 6565,
      "Ġinfluenced": 6566,
      "Ġvehicles": 6567,
      "Ġcosm": 6568,
      "Ġdensity": 6569,
      "Ġpron": 6570,
      "Ġmoments": 6571,
      "Ġorbit": 6572,
      "Ġcloud": 6573,
      "ĠMichael": 6574,
      "tles": 6575,
      "Ġaest": 6576,
      "Ġshut": 6577,
      "Ġshop": 6578,
      "Ġconcentration": 6579,
      "zil": 6580,
      "cel": 6581,
      "assion": 6582,
      "Ġturning": 6583,
      "rary": 6584,
      "sts": 6585,
      "Ġseed": 6586,
      "Ġspin": 6587,
      "iences": 6588,
      "Ġprepare": 6589,
      "Ġmerely": 6590,
      "ĠTV": 6591,
      "Ġorient": 6592,
      "emic": 6593,
      "Ġaccident": 6594,
      "31": 6595,
      "AD": 6596,
      "Ġcul": 6597,
      "aria": 6598,
      "ĠLibr": 6599,
      "ĠVict": 6600,
      "Ġpassing": 6601,
      "Ġparameters": 6602,
      "Ġhem": 6603,
      "Ġallerg": 6604,
      "ĠManagement": 6605,
      "Americ": 6606,
      "Ġdesire": 6607,
      "âĢĿ,": 6608,
      "Ġintroduction": 6609,
      "Ġframe": 6610,
      "05": 6611,
      "state": 6612,
      "ĠTem": 6613,
      "ota": 6614,
      "abits": 6615,
      "Ġinflamm": 6616,
      "Ġconfident": 6617,
      "ĠExp": 6618,
      "mun": 6619,
      "orph": 6620,
      "ĠLouis": 6621,
      "Ġ300": 6622,
      "ĠColumb": 6623,
      "Ġharvest": 6624,
      "liament": 6625,
      "isters": 6626,
      "Ġfashion": 6627,
      "rogen": 6628,
      "Ġconvey": 6629,
      "Ġchick": 6630,
      "Ġindicates": 6631,
      "Ġagreement": 6632,
      "ĠSouthern": 6633,
      "Ġframework": 6634,
      "OM": 6635,
      "Ġwidespread": 6636,
      "asy": 6637,
      "Ġneither": 6638,
      "Ġcolonial": 6639,
      "Ġmathematics": 6640,
      "ieval": 6641,
      "Ġwriter": 6642,
      "Ġnp": 6643,
      "Ġexcl": 6644,
      "Ġserving": 6645,
      "Ġelection": 6646,
      "ĠUnfortunately": 6647,
      "inates": 6648,
      "Ġban": 6649,
      "ĠIll": 6650,
      "ĠKh": 6651,
      "Ġformula": 6652,
      "how": 6653,
      "Ġrank": 6654,
      "Ġabund": 6655,
      "Ġwildlife": 6656,
      "utch": 6657,
      "ĠPlease": 6658,
      "Ġparticipate": 6659,
      "ĠPC": 6660,
      "ĠMeanwhile": 6661,
      "Ġblocks": 6662,
      "Ġtransmission": 6663,
      "ventions": 6664,
      "Ġcommitment": 6665,
      "ĠEnvironmental": 6666,
      "ita": 6667,
      "Ġmaintenance": 6668,
      "Ġinternet": 6669,
      "Ġcards": 6670,
      "imer": 6671,
      "Ġkit": 6672,
      "Ġwhenever": 6673,
      "Ġ32": 6674,
      "Ġtwice": 6675,
      "Ġ1960": 6676,
      "Ġinterpretation": 6677,
      "47": 6678,
      "mod": 6679,
      "Ġperm": 6680,
      "Ġartist": 6681,
      "Ġemergency": 6682,
      "Ġuncertain": 6683,
      "Is": 6684,
      "heric": 6685,
      "Ġtested": 6686,
      "Ġforests": 6687,
      "Ex": 6688,
      "top": 6689,
      "Ġreven": 6690,
      "Ġvs": 6691,
      "ĠComput": 6692,
      "ĠCast": 6693,
      "ĠNever": 6694,
      "Ġimprovement": 6695,
      "Ġrevealed": 6696,
      "bra": 6697,
      "flow": 6698,
      "lan": 6699,
      "andon": 6700,
      "acu": 6701,
      "Ġinfrastructure": 6702,
      "dis": 6703,
      "Ġbutter": 6704,
      "Ġmyst": 6705,
      "Ġprotected": 6706,
      "ĠArticle": 6707,
      "Ġsplit": 6708,
      "ses": 6709,
      "ĠTogether": 6710,
      "Ġpossibilities": 6711,
      "Ġfill": 6712,
      "Ġhole": 6713,
      "Ġconqu": 6714,
      "ĠPeter": 6715,
      "ĠLanguage": 6716,
      "ĠLearning": 6717,
      "organ": 6718,
      "Ġforg": 6719,
      "Ġblow": 6720,
      "hesis": 6721,
      "Ġinfluences": 6722,
      "Ġconcerning": 6723,
      "Ġcrow": 6724,
      "ĠEnd": 6725,
      "Ġdecline": 6726,
      "Ġphenomenon": 6727,
      "Ġcomposed": 6728,
      "Ġdealing": 6729,
      "01": 6730,
      "Ġtips": 6731,
      "ester": 6732,
      "Ġinject": 6733,
      "ĠItaly": 6734,
      "Ġbrings": 6735,
      "ĠScott": 6736,
      "Ġminds": 6737,
      "AP": 6738,
      "kin": 6739,
      "Ġvel": 6740,
      "Ġmonitor": 6741,
      "Ġprominent": 6742,
      "Ġproduces": 6743,
      "Ġartificial": 6744,
      "een": 6745,
      "Ġnu": 6746,
      "umes": 6747,
      "ĠDid": 6748,
      "Ġsubsequent": 6749,
      "Ġstrange": 6750,
      "Ġlistening": 6751,
      "Ġzone": 6752,
      "Ġterritory": 6753,
      "Ġsail": 6754,
      "itical": 6755,
      "Ġhumanity": 6756,
      "class": 6757,
      "Ġroute": 6758,
      "Ġexpectations": 6759,
      "55": 6760,
      "Ġachieved": 6761,
      "Ġordinary": 6762,
      "ean": 6763,
      "ĠFederal": 6764,
      "asty": 6765,
      "Ġuniform": 6766,
      "Ġfounded": 6767,
      "Ġgreatly": 6768,
      "Ġlinear": 6769,
      "Ġaccum": 6770,
      "Ġinstrument": 6771,
      "Ġembracing": 6772,
      "Ġpit": 6773,
      "ĠImp": 6774,
      "Ġfewer": 6775,
      "Ġexercises": 6776,
      "car": 6777,
      "Ġlegs": 6778,
      "Ġcharacterized": 6779,
      "Ġconflicts": 6780,
      "Ġbudget": 6781,
      "Ġbrand": 6782,
      "Ġdecrease": 6783,
      "eor": 6784,
      "Ġpump": 6785,
      "ĠTake": 6786,
      "Ġwaiting": 6787,
      "Ġsales": 6788,
      "itative": 6789,
      "Ġbonds": 6790,
      "etics": 6791,
      "Ġhappening": 6792,
      "Ġdivision": 6793,
      "Ġdiagnosis": 6794,
      "ĠIslam": 6795,
      "ĠSchol": 6796,
      "ograp": 6797,
      "Ġinsurance": 6798,
      "Ġencourages": 6799,
      "Ġlatest": 6800,
      "ĠConnect": 6801,
      "bb": 6802,
      "Ġborder": 6803,
      "ĠEqu": 6804,
      "Ġadvantages": 6805,
      "Ġsharp": 6806,
      "Ġliver": 6807,
      "ĠPage": 6808,
      "ĠUlt": 6809,
      "Ġengineers": 6810,
      "avery": 6811,
      "gon": 6812,
      "ĠLiter": 6813,
      "Ġroof": 6814,
      "ĠIndigenous": 6815,
      "Ġsupports": 6816,
      "Ġrobust": 6817,
      "ĠLesson": 6818,
      "ĠAge": 6819,
      "Ġtrouble": 6820,
      "ĠOx": 6821,
      "teen": 6822,
      "Ġinstances": 6823,
      "Ġtrip": 6824,
      "Ġphoto": 6825,
      "Ġpsychological": 6826,
      "Ġcoastal": 6827,
      "EL": 6828,
      "iat": 6829,
      "Ġforming": 6830,
      "arsh": 6831,
      "Ġswitch": 6832,
      "ĠPortug": 6833,
      "gs": 6834,
      "luding": 6835,
      "Ġdirector": 6836,
      "Ġdiscussing": 6837,
      "ĠScot": 6838,
      "Ġclothing": 6839,
      "ca": 6840,
      "eers": 6841,
      "ĠSaf": 6842,
      "ĠPan": 6843,
      "Ġabstract": 6844,
      "ishment": 6845,
      "Ġ500": 6846,
      "Ġconversation": 6847,
      "Ġelectrons": 6848,
      "ixture": 6849,
      "Ġdatabase": 6850,
      "Ġathlet": 6851,
      "pal": 6852,
      "Ġthread": 6853,
      "ĠLabor": 6854,
      "Ġadministration": 6855,
      "Ġnine": 6856,
      "ĠCamp": 6857,
      "Ġlisted": 6858,
      "Ġcircle": 6859,
      "free": 6860,
      "Ġexplicit": 6861,
      "Ġphotograph": 6862,
      "arant": 6863,
      "Ġran": 6864,
      "Ġresulted": 6865,
      "Ġdemands": 6866,
      "Ġaffecting": 6867,
      "indu": 6868,
      "irt": 6869,
      "ĠFree": 6870,
      "Ġmatrix": 6871,
      "Ġcaptured": 6872,
      "Ġbreathing": 6873,
      "Ġgradually": 6874,
      "====": 6875,
      "Ġcryst": 6876,
      "Ġenabling": 6877,
      "Ġgro": 6878,
      "ĠPet": 6879,
      "ĠWord": 6880,
      "ĠMah": 6881,
      "ĠExt": 6882,
      "ĠEastern": 6883,
      "neys": 6884,
      "ĠPlay": 6885,
      "ĠBrazil": 6886,
      "Ġobstac": 6887,
      "ĠPenn": 6888,
      "Ġpreserving": 6889,
      "Ġconsideration": 6890,
      "ĠLo": 6891,
      "Ġpeoples": 6892,
      "Ġended": 6893,
      "itter": 6894,
      "lements": 6895,
      "Ġacids": 6896,
      "Ġdifficulty": 6897,
      "Un": 6898,
      "Ġbot": 6899,
      "Ġ1995": 6900,
      "Ġgods": 6901,
      "Ġpuzz": 6902,
      "66": 6903,
      "stone": 6904,
      "Ġalbum": 6905,
      "Ġconsumers": 6906,
      "Ġfacilitate": 6907,
      "gu": 6908,
      "illa": 6909,
      "ecess": 6910,
      "Ġemotion": 6911,
      "Ġfairly": 6912,
      "otal": 6913,
      "Ġoperate": 6914,
      "ĠColor": 6915,
      "Ġofficers": 6916,
      "osph": 6917,
      "Ġritual": 6918,
      "ĠGroup": 6919,
      "Ġabandon": 6920,
      "azine": 6921,
      "Ġsight": 6922,
      "Ġlie": 6923,
      "cho": 6924,
      "Ġcarrying": 6925,
      "ĠLu": 6926,
      "Ġstatements": 6927,
      "telling": 6928,
      "Ġwilling": 6929,
      "Ġdistur": 6930,
      "Ġentry": 6931,
      "Ġentered": 6932,
      "Ġextensive": 6933,
      "conn": 6934,
      "Ġnerve": 6935,
      "resent": 6936,
      "ĠLog": 6937,
      "Ġadm": 6938,
      "Ġagents": 6939,
      "Ġ1997": 6940,
      "Ġcaptiv": 6941,
      "ĠEdward": 6942,
      "Ġuniversal": 6943,
      "gent": 6944,
      "Ġboy": 6945,
      "ĠUt": 6946,
      "Ġrising": 6947,
      "bec": 6948,
      "wing": 6949,
      "Ġtact": 6950,
      "Ġble": 6951,
      "Ġmir": 6952,
      "ĠMad": 6953,
      "Ġmeals": 6954,
      "Ġsuffering": 6955,
      "ĠÂ©": 6956,
      "usions": 6957,
      "ĠEngine": 6958,
      "anes": 6959,
      "Ġsacr": 6960,
      "ette": 6961,
      "Ġcontained": 6962,
      "Ġclassical": 6963,
      "Ġindustries": 6964,
      "02": 6965,
      "An": 6966,
      "spe": 6967,
      "Ġru": 6968,
      "Ġemployees": 6969,
      "Ġencounter": 6970,
      "yal": 6971,
      "hemical": 6972,
      "Ġextraord": 6973,
      "uma": 6974,
      "---": 6975,
      "ascular": 6976,
      "Ġstability": 6977,
      "ĠLake": 6978,
      "ĠConsequently": 6979,
      "Ġclaimed": 6980,
      "Ġattempts": 6981,
      "whel": 6982,
      "Ġunable": 6983,
      "Ġrelation": 6984,
      "Ġregardless": 6985,
      "ĠGlobal": 6986,
      "ĠJoseph": 6987,
      "but": 6988,
      "tic": 6989,
      "heast": 6990,
      "real": 6991,
      "Ġenforce": 6992,
      "Ġdefend": 6993,
      "Ġruns": 6994,
      "Ġthreats": 6995,
      "Ġmedications": 6996,
      "Ġhorses": 6997,
      "ĠAuth": 6998,
      "Ġasp": 6999,
      "Ġproceed": 7000,
      "riend": 7001,
      "Ġreveal": 7002,
      "Ġsimultaneously": 7003,
      "Ġends": 7004,
      "Ġrequiring": 7005,
      "Ġescape": 7006,
      "Ġlaun": 7007,
      "Ġintensity": 7008,
      "Ġworse": 7009,
      "Ġteams": 7010,
      "500": 7011,
      "Ġtension": 7012,
      "Ġgent": 7013,
      "Ġhealing": 7014,
      "rue": 7015,
      "Ġdeclared": 7016,
      "Ġsector": 7017,
      "Ġhonor": 7018,
      "ĠSever": 7019,
      "Ġcenters": 7020,
      "ĠWikipedia": 7021,
      "Ġinher": 7022,
      "ĠIce": 7023,
      "Ġentertain": 7024,
      "Ġequally": 7025,
      "Ġcommitted": 7026,
      "Ġrom": 7027,
      "ĠIns": 7028,
      "ĠThree": 7029,
      "Ġevil": 7030,
      "ĠVer": 7031,
      "Ġliber": 7032,
      "Ġinfected": 7033,
      "Ġcrew": 7034,
      "Ġ$$": 7035,
      "theless": 7036,
      "Ġcalculate": 7037,
      "Ġmolecular": 7038,
      "ĠMD": 7039,
      "Ġvector": 7040,
      "Ġthy": 7041,
      "Ġeld": 7042,
      "umin": 7043,
      "Ġsched": 7044,
      "ĠIndians": 7045,
      "Ġinterpre": 7046,
      "Ġcamera": 7047,
      "world": 7048,
      "Ġstre": 7049,
      "Ġwondered": 7050,
      "aded": 7051,
      "Ġages": 7052,
      "ĠAsian": 7053,
      "Ġdestruction": 7054,
      "Ġinitiatives": 7055,
      "Ġvessels": 7056,
      "ĠFlorida": 7057,
      "79": 7058,
      "da": 7059,
      "ĠDig": 7060,
      "Ġraw": 7061,
      "Ġdistributed": 7062,
      "Ġmutual": 7063,
      "Ġunusual": 7064,
      "Ġcalcium": 7065,
      "Ġspecialized": 7066,
      "AA": 7067,
      "Ġtor": 7068,
      "Ġplanets": 7069,
      "Ġnorms": 7070,
      "Ġdigest": 7071,
      "Ġroutine": 7072,
      "Ġinhabit": 7073,
      "ressing": 7074,
      "Ġ$\\": 7075,
      "holders": 7076,
      "ĠAtlantic": 7077,
      "Ġagency": 7078,
      "ĠAustralian": 7079,
      "ĠEp": 7080,
      "Ġresidents": 7081,
      "Ġacknowled": 7082,
      "Ph": 7083,
      "Ġvoc": 7084,
      "ĠRoyal": 7085,
      "Ġcorner": 7086,
      "Ġsubstances": 7087,
      "Ġrivers": 7088,
      "ĠMoon": 7089,
      "ĠWall": 7090,
      "Ġatoms": 7091,
      "apse": 7092,
      "Ġcoff": 7093,
      "Ġfertil": 7094,
      "lock": 7095,
      "Ġmood": 7096,
      "ĠBur": 7097,
      "Ġcompare": 7098,
      "Ġcompounds": 7099,
      "compass": 7100,
      "Ġintroduce": 7101,
      "Ġfocuses": 7102,
      "Ġyounger": 7103,
      "Ġmagical": 7104,
      "Ġevaluate": 7105,
      "'.": 7106,
      "ĠMath": 7107,
      "Ġcompr": 7108,
      "Ġswim": 7109,
      "Ġsatisf": 7110,
      "yd": 7111,
      "ĠJul": 7112,
      "Ġfolk": 7113,
      "Ġbiology": 7114,
      "Ġpreferences": 7115,
      "Ġbanks": 7116,
      "ĠSing": 7117,
      "Ġcomprom": 7118,
      "Ġsomewhat": 7119,
      "Ġfunding": 7120,
      "Ġpoetry": 7121,
      "Ġdisrupt": 7122,
      "Ġsyndrome": 7123,
      "Ġdevelopments": 7124,
      "Ġminimize": 7125,
      "SD": 7126,
      "Ã¶": 7127,
      "Ġcert": 7128,
      "Ġwish": 7129,
      "ora": 7130,
      "ĠDise": 7131,
      "ĠLar": 7132,
      "Ġtelevision": 7133,
      ",'": 7134,
      "ala": 7135,
      "Ġelectro": 7136,
      "Ġperforming": 7137,
      "position": 7138,
      "Ġearthqu": 7139,
      "reens": 7140,
      "Ġfocusing": 7141,
      "Ġcontributions": 7142,
      "ĠActivity": 7143,
      "Ġcolleagues": 7144,
      "Ġstom": 7145,
      "ĠEr": 7146,
      "ĠUnlike": 7147,
      "ĠPot": 7148,
      "Ġdism": 7149,
      "Ġdecade": 7150,
      "roscop": 7151,
      "Ġorigins": 7152,
      "Ġmembrane": 7153,
      "onn": 7154,
      "Ġhabits": 7155,
      "Ġstake": 7156,
      "ĠChic": 7157,
      "Ġinvestigation": 7158,
      "ĠTor": 7159,
      "coming": 7160,
      "ĠUSA": 7161,
      "DF": 7162,
      "Ġsad": 7163,
      "ĠBab": 7164,
      "Ġagencies": 7165,
      "ographical": 7166,
      "Ġshaped": 7167,
      "Ġadministr": 7168,
      "Ġvehicle": 7169,
      "ĠScientists": 7170,
      "Ġfu": 7171,
      "Ġstreet": 7172,
      "ogy": 7173,
      "ounded": 7174,
      "Ġrealize": 7175,
      "Ġcraf": 7176,
      "Ġenhancing": 7177,
      "Ġcriminal": 7178,
      "Ġaward": 7179,
      "ĠMel": 7180,
      "ĠNov": 7181,
      "ĠLittle": 7182,
      "Ġintense": 7183,
      "Ġracial": 7184,
      "Ġfeat": 7185,
      "Ġcontrols": 7186,
      "Ġcircuit": 7187,
      "Ġfulf": 7188,
      "Ġlens": 7189,
      "Ġgiant": 7190,
      "Ġunion": 7191,
      "Ġempt": 7192,
      "Ġproved": 7193,
      "Ġdivine": 7194,
      "Ġamidst": 7195,
      "erals": 7196,
      "ĠFour": 7197,
      "Ġexplored": 7198,
      "Ġmemories": 7199,
      "fit": 7200,
      "ĠCub": 7201,
      "Go": 7202,
      "rem": 7203,
      "Ġspending": 7204,
      "venile": 7205,
      "Ġsuperior": 7206,
      "Ġparticipation": 7207,
      "Ġrecy": 7208,
      "Ġpermanent": 7209,
      "ĠGrand": 7210,
      "Ġbranch": 7211,
      "Ġbranches": 7212,
      "ĠFoundation": 7213,
      "essions": 7214,
      "Ġintent": 7215,
      "Ġintrig": 7216,
      "Ġjoy": 7217,
      "ĠHeb": 7218,
      "ĠContin": 7219,
      "Ġunw": 7220,
      "?âĢĿ": 7221,
      "Ġrid": 7222,
      "Ġdifferently": 7223,
      "ĠValley": 7224,
      "bur": 7225,
      "itivity": 7226,
      "Ġthrow": 7227,
      "Ġjur": 7228,
      "Ġdistrict": 7229,
      "Ġfung": 7230,
      "Ġdescript": 7231,
      "Ġmeasurements": 7232,
      "Ġsan": 7233,
      "ĠBill": 7234,
      "inson": 7235,
      "Ġsunlight": 7236,
      "Ġsurfaces": 7237,
      "64": 7238,
      "ilation": 7239,
      "Ġprohib": 7240,
      "ĠHaw": 7241,
      "Ġoutl": 7242,
      "Ġfeels": 7243,
      "Ġmaps": 7244,
      "ĠNations": 7245,
      "ĠStar": 7246,
      "zed": 7247,
      "Ġmac": 7248,
      "amps": 7249,
      "capes": 7250,
      "Ġmobile": 7251,
      "Ġhier": 7252,
      "ĠCr": 7253,
      "Ġshoot": 7254,
      "Ġemployment": 7255,
      "ommod": 7256,
      "Ġcond": 7257,
      "osion": 7258,
      "Ġpreserve": 7259,
      "Ġbridge": 7260,
      "ĠExploring": 7261,
      "85": 7262,
      "}{": 7263,
      "Ġshed": 7264,
      "anda": 7265,
      "ĠNaz": 7266,
      "ĠShare": 7267,
      "Ġalgorithms": 7268,
      "Ġgirl": 7269,
      "called": 7270,
      "Ġcaught": 7271,
      "fulness": 7272,
      "lishing": 7273,
      "Ġbarriers": 7274,
      "Ġconversations": 7275,
      "onents": 7276,
      "Ġreader": 7277,
      "Ġslaves": 7278,
      "Ġordered": 7279,
      "Ġinjuries": 7280,
      "Ġcustomers": 7281,
      "Ġpregnancy": 7282,
      "Ġtales": 7283,
      "Ġcrop": 7284,
      "Ġmm": 7285,
      "Ġgram": 7286,
      "ĠClick": 7287,
      "ĠDar": 7288,
      "unning": 7289,
      "cling": 7290,
      "Ġcontributed": 7291,
      "Ġvolcan": 7292,
      "Ġcomfortable": 7293,
      "ĠIslamic": 7294,
      "Ġsoph": 7295,
      "olt": 7296,
      "pha": 7297,
      "antly": 7298,
      "ĠPerhaps": 7299,
      "ĠDiscuss": 7300,
      "bar": 7301,
      "vin": 7302,
      "xual": 7303,
      "esis": 7304,
      "umps": 7305,
      "ĠChristianity": 7306,
      "ston": 7307,
      "Ġnice": 7308,
      "Ġstead": 7309,
      "istical": 7310,
      "ĠArctic": 7311,
      "Ġfinished": 7312,
      "Ġerrors": 7313,
      "Ġqualities": 7314,
      "Ġdollars": 7315,
      "Ġhusband": 7316,
      "ĠControl": 7317,
      "Ġextraordinary": 7318,
      "77": 7319,
      "fl": 7320,
      "Ġrequest": 7321,
      "Ġimmun": 7322,
      "Ġmarried": 7323,
      "Ġmountains": 7324,
      "Ġcomparison": 7325,
      "uan": 7326,
      "Ġdoi": 7327,
      "Ġmedication": 7328,
      "There": 7329,
      "Ġestimate": 7330,
      "ĠBeing": 7331,
      "Ġreliable": 7332,
      "Ġseemingly": 7333,
      "Ġrepresenting": 7334,
      "cons": 7335,
      "abeth": 7336,
      "lessly": 7337,
      "Ġopposed": 7338,
      "Ġessentially": 7339,
      "sen": 7340,
      "ults": 7341,
      "oves": 7342,
      "Ġpromise": 7343,
      "Ġdamaged": 7344,
      "ĠSuper": 7345,
      "Ġbreath": 7346,
      "Ġrecept": 7347,
      "Ġprevention": 7348,
      "BT": 7349,
      "action": 7350,
      "Ġapplying": 7351,
      "Ġtheme": 7352,
      "ĠWhich": 7353,
      "Ġseconds": 7354,
      "Ġoverwhel": 7355,
      "Ġnewly": 7356,
      "Ġ1996": 7357,
      "Ġputting": 7358,
      "ĠAI": 7359,
      "irds": 7360,
      "ada": 7361,
      "Ġshock": 7362,
      "Ġcontributing": 7363,
      "Ġburning": 7364,
      "Ġgirls": 7365,
      "operation": 7366,
      "ĠGar": 7367,
      "Ġconfir": 7368,
      "Ġinspiration": 7369,
      "ĠLab": 7370,
      "Ġcurric": 7371,
      "Ġ75": 7372,
      "Ġcategory": 7373,
      "ugh": 7374,
      "Ġalive": 7375,
      "Ġprotecting": 7376,
      "ĠSeveral": 7377,
      "ĠCrit": 7378,
      "ums": 7379,
      "Ġarrest": 7380,
      "ĠStart": 7381,
      "oven": 7382,
      "Ġparticle": 7383,
      "Ġplane": 7384,
      "ĠAcademy": 7385,
      "Ġmarginal": 7386,
      "bles": 7387,
      "ua": 7388,
      "ĠSir": 7389,
      "ĠWood": 7390,
      "eath": 7391,
      "Ġmur": 7392,
      "ett": 7393,
      "Ġranging": 7394,
      "Ġsurve": 7395,
      "Ġlaid": 7396,
      "Ġfriendly": 7397,
      "Ġvoltage": 7398,
      "frac": 7399,
      "gia": 7400,
      "ima": 7401,
      "Ġconven": 7402,
      "ĠEmb": 7403,
      "ocy": 7404,
      "Ġherself": 7405,
      "ĠAnn": 7406,
      "archy": 7407,
      "Ġempower": 7408,
      "ĠPalest": 7409,
      "ivery": 7410,
      "Ġcats": 7411,
      "outs": 7412,
      "ella": 7413,
      "Ġversions": 7414,
      "Ġfunds": 7415,
      "Ġsoul": 7416,
      "Ġminute": 7417,
      "Ġslavery": 7418,
      "Ġwatching": 7419,
      "ĠProfessor": 7420,
      "ĠHall": 7421,
      "Ġtribes": 7422,
      "Ġphenomena": 7423,
      "03": 7424,
      "Ġpapers": 7425,
      "rape": 7426,
      "Ġcorresponding": 7427,
      "aud": 7428,
      "nee": 7429,
      "ĠAdv": 7430,
      "Ġvariations": 7431,
      "ĠWindows": 7432,
      "Ġmales": 7433,
      "ady": 7434,
      "Ġboost": 7435,
      "Ġconsiderable": 7436,
      "Ġlegisl": 7437,
      "Ġreaching": 7438,
      "Ġbigger": 7439,
      "Ġmagic": 7440,
      "ĠMartin": 7441,
      "agram": 7442,
      "estyle": 7443,
      "ĠRock": 7444,
      "aren": 7445,
      "Ġguard": 7446,
      "ĠWhether": 7447,
      "Ġspoken": 7448,
      "Ġnoun": 7449,
      "Ġcharged": 7450,
      "Ġcapabilities": 7451,
      "ĠSpain": 7452,
      "ĠResp": 7453,
      "ĠChristians": 7454,
      "Ġprobability": 7455,
      "Ġidentifying": 7456,
      "ĠSpecial": 7457,
      "Ġvibrant": 7458,
      "Ġfabric": 7459,
      "43": 7460,
      "Ġmuseum": 7461,
      "Ġlingu": 7462,
      "sey": 7463,
      "Ġinterface": 7464,
      "Ġguarant": 7465,
      "ĠApplic": 7466,
      "iac": 7467,
      "idity": 7468,
      "Ġmeal": 7469,
      "ĠImage": 7470,
      "Ġtempor": 7471,
      "Ġreceiving": 7472,
      "Ġarchae": 7473,
      "Ġgreenhouse": 7474,
      "Ġgravity": 7475,
      "Ġpush": 7476,
      "ĠIran": 7477,
      "avors": 7478,
      "Ġhandling": 7479,
      "LL": 7480,
      "ĠMer": 7481,
      "Ġsubstantial": 7482,
      "just": 7483,
      "ĠChange": 7484,
      "Ġdelay": 7485,
      "Ġparad": 7486,
      "Ġviruses": 7487,
      "Ġbattery": 7488,
      "rh": 7489,
      "itt": 7490,
      "ĠTimes": 7491,
      "ĠGr": 7492,
      "Ġadds": 7493,
      "Ġfaces": 7494,
      "Ġlaunch": 7495,
      "Ġmissing": 7496,
      "Ġlibraries": 7497,
      "Ġtut": 7498,
      "eric": 7499,
      "Ġsod": 7500,
      "earing": 7501,
      "Ġactively": 7502,
      "Ġcounty": 7503,
      "Ġshowc": 7504,
      "ĠVietnam": 7505,
      "ĠMethod": 7506,
      "Ġstructural": 7507,
      "night": 7508,
      "ĠBig": 7509,
      "Ġarise": 7510,
      "Ġobserve": 7511,
      "95": 7512,
      "mers": 7513,
      "Ġsou": 7514,
      "Ġpreventing": 7515,
      "hav": 7516,
      "Ġille": 7517,
      "ulpt": 7518,
      "ĠMen": 7519,
      "Ġdecor": 7520,
      "Ġmovie": 7521,
      "Ġincorporate": 7522,
      "Ġbrows": 7523,
      "Ġencompass": 7524,
      "izer": 7525,
      "42": 7526,
      "DP": 7527,
      "Ġrice": 7528,
      "Ġgrade": 7529,
      "Ġelected": 7530,
      "Ġdeaths": 7531,
      "Ġimplementing": 7532,
      "Ġsuddenly": 7533,
      "ĠAnswer": 7534,
      "ĠMax": 7535,
      "Ġexception": 7536,
      "Ġconstructed": 7537,
      "ĠVictor": 7538,
      "Ġnotion": 7539,
      "Ġcompens": 7540,
      "Ġfourth": 7541,
      "bridge": 7542,
      "mic": 7543,
      "Ġreduces": 7544,
      "ĠCommit": 7545,
      "Ġintegration": 7546,
      "scale": 7547,
      "Ġappeal": 7548,
      "Ġcong": 7549,
      "acher": 7550,
      "Ġmechanical": 7551,
      "ĠAccess": 7552,
      "Ġgrid": 7553,
      "41": 7554,
      "oir": 7555,
      "Ġorb": 7556,
      "Ġsport": 7557,
      "Ġtransformation": 7558,
      "Ġadvancements": 7559,
      "ĠOper": 7560,
      "Ġpreced": 7561,
      "Ġaccommod": 7562,
      "Ġconfig": 7563,
      "ĠEss": 7564,
      "Ġconstantly": 7565,
      "oric": 7566,
      "Ġbio": 7567,
      "ĠTable": 7568,
      "Ġnurs": 7569,
      "Ġreflection": 7570,
      "ĠHebrew": 7571,
      "ano": 7572,
      "Ġspark": 7573,
      "Ġunity": 7574,
      "ĠIndeed": 7575,
      "Ġstrategic": 7576,
      "Ġlogic": 7577,
      "Ġsatellite": 7578,
      "Ġneighborhood": 7579,
      "eness": 7580,
      "Ġped": 7581,
      "Ġbomb": 7582,
      "Ġconnecting": 7583,
      "Ġdominant": 7584,
      "Ġsuffer": 7585,
      "Ġdanger": 7586,
      "ĠLibrary": 7587,
      "06": 7588,
      "born": 7589,
      "isk": 7590,
      "Ġaccessible": 7591,
      "Ġinspire": 7592,
      "Ġdimensions": 7593,
      "math": 7594,
      "ĠTheory": 7595,
      "ĠHor": 7596,
      "Ġven": 7597,
      "rous": 7598,
      "Ġaudio": 7599,
      "Ġvarying": 7600,
      "ĠLin": 7601,
      "ĠAnalysis": 7602,
      "ployment": 7603,
      "Ġadequate": 7604,
      "Ġstomach": 7605,
      "ĠBank": 7606,
      "Ġdepart": 7607,
      "Ġcomputing": 7608,
      "Ġanalyzing": 7609,
      "ulus": 7610,
      "Ġscar": 7611,
      "Ġmyself": 7612,
      "Ġsheet": 7613,
      "Ġclassic": 7614,
      "Ġpropos": 7615,
      "uation": 7616,
      "Ġ?": 7617,
      "Ġmand": 7618,
      "Ġassigned": 7619,
      "Ġchannel": 7620,
      "Ġhunting": 7621,
      "lights": 7622,
      "itar": 7623,
      "Ġobservation": 7624,
      "Ġdomain": 7625,
      "ĠPrin": 7626,
      "ĠOffice": 7627,
      "Ġvulnerable": 7628,
      "Ġtons": 7629,
      "ĠJack": 7630,
      "Ġcompassion": 7631,
      "iodiversity": 7632,
      "Ġpresentation": 7633,
      "Ġsummary": 7634,
      "gers": 7635,
      "rot": 7636,
      "achel": 7637,
      "Ġfrequent": 7638,
      "Ġlaboratory": 7639,
      "Ã¢": 7640,
      "Ġmixture": 7641,
      "Ġdispl": 7642,
      "Ġpracticing": 7643,
      "ĠGuide": 7644,
      "Ġunders": 7645,
      "Ġouter": 7646,
      "Ġsigned": 7647,
      "Ġearn": 7648,
      "Ġrespectively": 7649,
      "Ġconsumer": 7650,
      "gans": 7651,
      "ami": 7652,
      "Ġchildhood": 7653,
      "Ġscientist": 7654,
      "Ġstrike": 7655,
      "Ġtissues": 7656,
      "athered": 7657,
      "Ġmild": 7658,
      "Ġtowns": 7659,
      "ĠModel": 7660,
      "trans": 7661,
      "65": 7662,
      "Ġcm": 7663,
      "umber": 7664,
      "Ġrelief": 7665,
      "Ġscore": 7666,
      "------------": 7667,
      "Ġdetermination": 7668,
      "ĠSecurity": 7669,
      "asive": 7670,
      "eren": 7671,
      "Ġpresents": 7672,
      "Ġannounced": 7673,
      "Ġaudiences": 7674,
      "Ġefficiently": 7675,
      "Ġvictims": 7676,
      "Ġstrengthen": 7677,
      "Ġleaf": 7678,
      "Ġperception": 7679,
      "Ġequality": 7680,
      "Ġadvances": 7681,
      "Ġepid": 7682,
      "Ġevaluation": 7683,
      "ĠLater": 7684,
      "ells": 7685,
      "ĠClimate": 7686,
      "Ġdebt": 7687,
      "ĠCopy": 7688,
      "Ġveloc": 7689,
      "Ġnest": 7690,
      "Ġbeat": 7691,
      "adow": 7692,
      "exts": 7693,
      "Ġphilosoph": 7694,
      "yr": 7695,
      "Ġoral": 7696,
      "Ġmeters": 7697,
      "Ġissued": 7698,
      "Ġcriteria": 7699,
      "Ġaccompan": 7700,
      "Ġrarely": 7701,
      "Ġcas": 7702,
      "Ġcup": 7703,
      "ĠDom": 7704,
      "izabeth": 7705,
      "Ġpercentage": 7706,
      "ĠCase": 7707,
      "soft": 7708,
      "Ġargued": 7709,
      "Ġfemales": 7710,
      "Ġcorrectly": 7711,
      "earchers": 7712,
      "Ġteen": 7713,
      "Ġcream": 7714,
      "Ġextend": 7715,
      "Ġgranted": 7716,
      "Ġrational": 7717,
      "Ġsurprise": 7718,
      "Ġdisaster": 7719,
      "Ġnerv": 7720,
      "Ġusual": 7721,
      "Ġexpertise": 7722,
      "Ġfinds": 7723,
      "Ġdriven": 7724,
      "Ġsensors": 7725,
      "Ġpreparation": 7726,
      "Ġfro": 7727,
      "Ġcontexts": 7728,
      "Ġ1994": 7729,
      "Ġfeeding": 7730,
      "CD": 7731,
      "rep": 7732,
      "ĠLight": 7733,
      "Ġroyal": 7734,
      "Ġampl": 7735,
      "Ġdifficulties": 7736,
      "Ġintegr": 7737,
      "ĠMusic": 7738,
      "ĠCreate": 7739,
      "Ġlect": 7740,
      "Ġflag": 7741,
      "Ġbeneath": 7742,
      "Ġtrials": 7743,
      "Ġemphasis": 7744,
      "09": 7745,
      "ĠVen": 7746,
      "Ġinterventions": 7747,
      "Ġsustainability": 7748,
      "burg": 7749,
      "Ġring": 7750,
      "ĠInit": 7751,
      "Ġquiet": 7752,
      "Ġrefuge": 7753,
      "Ġowner": 7754,
      "ĠWithin": 7755,
      "Ġencouraging": 7756,
      "ĠConstitution": 7757,
      "Ġreign": 7758,
      "ĠDutch": 7759,
      "Ġwellbeing": 7760,
      "Ġverb": 7761,
      "ĠBus": 7762,
      "acent": 7763,
      "ĠDou": 7764,
      "Ġpeak": 7765,
      "Ġessay": 7766,
      "Ġdependent": 7767,
      "Cl": 7768,
      "Ġroughly": 7769,
      "Ġstrongly": 7770,
      "Ġconvert": 7771,
      "Ġfract": 7772,
      "ĠEc": 7773,
      "Ġdetection": 7774,
      "Ġtheoretical": 7775,
      "08": 7776,
      "Ġstores": 7777,
      "Ġveter": 7778,
      "Ġweakness": 7779,
      "ĠStrateg": 7780,
      "CO": 7781,
      "ĠIP": 7782,
      "usal": 7783,
      "ĠWhit": 7784,
      "Ġcourts": 7785,
      "Ġobjective": 7786,
      "ĠCheck": 7787,
      "ĠLearn": 7788,
      "Ġchannels": 7789,
      "iations": 7790,
      "Ġtank": 7791,
      "Ġgently": 7792,
      "uts": 7793,
      "oving": 7794,
      "ulates": 7795,
      "orted": 7796,
      "Ġwrites": 7797,
      "Ġlegislation": 7798,
      "hi": 7799,
      "Ġstood": 7800,
      "ĠCross": 7801,
      "Ġplain": 7802,
      "ĠAsk": 7803,
      "Ġmeasuring": 7804,
      "ĠInteg": 7805,
      "âĢľ": 7806,
      "ostic": 7807,
      "ĠYoung": 7808,
      "Ġdirected": 7809,
      "Ġseparated": 7810,
      "Ġencouraged": 7811,
      "Ġmanufacturing": 7812,
      "SP": 7813,
      "from": 7814,
      "atial": 7815,
      "Ġcub": 7816,
      "Ġcodes": 7817,
      "ĠPen": 7818,
      "Ġimplemented": 7819,
      "Ġtaxes": 7820,
      "ĠKorea": 7821,
      "ĠChicago": 7822,
      "Ġrect": 7823,
      "emb": 7824,
      "atively": 7825,
      "Ġpractition": 7826,
      "ymph": 7827,
      "Ġorders": 7828,
      "Ġlimitations": 7829,
      "Ġtube": 7830,
      "Ġphrase": 7831,
      "Ġpounds": 7832,
      "Ġneck": 7833,
      "Ġintake": 7834,
      "Ġ400": 7835,
      "Ġbreaking": 7836,
      "Ġcustoms": 7837,
      "Ġexperimental": 7838,
      "ĠFace": 7839,
      "ĠOl": 7840,
      "inder": 7841,
      "Ġ2016": 7842,
      "aska": 7843,
      "American": 7844,
      "He": 7845,
      "Ġsizes": 7846,
      "Ġhistoric": 7847,
      "Ġexcessive": 7848,
      "QL": 7849,
      "medi": 7850,
      "Ġgap": 7851,
      "ĠSil": 7852,
      "ĠTradition": 7853,
      "Ġeffectiveness": 7854,
      "Ġidentities": 7855,
      "ĠAllah": 7856,
      "Ġlosses": 7857,
      "Ġsteel": 7858,
      "ĠElizabeth": 7859,
      "ĠMot": 7860,
      "Ġreput": 7861,
      "Ġdefault": 7862,
      "Ġdemocracy": 7863,
      "Ġinstalled": 7864,
      "Ġquarter": 7865,
      "awn": 7866,
      "ĠHoly": 7867,
      "04": 7868,
      "anc": 7869,
      "ĠBuilding": 7870,
      "TP": 7871,
      "Ġfurn": 7872,
      "ĠMos": 7873,
      "Ġmodified": 7874,
      "Ġcarb": 7875,
      "otypes": 7876,
      "Ġcoffee": 7877,
      "ION": 7878,
      "LE": 7879,
      "Ġ000": 7880,
      "olar": 7881,
      "yer": 7882,
      "Ġkeeps": 7883,
      "Ġbringing": 7884,
      "Ġbehaviour": 7885,
      "tw": 7886,
      "Ġimaging": 7887,
      "cribed": 7888,
      "uine": 7889,
      "etary": 7890,
      "ema": 7891,
      "oston": 7892,
      "ĠImport": 7893,
      "Ġparas": 7894,
      "ĠInvest": 7895,
      "Ġuniversity": 7896,
      "Ġtreating": 7897,
      "Ġstorytelling": 7898,
      "Ġcelebrate": 7899,
      "ĠObject": 7900,
      "Ġfought": 7901,
      "ani": 7902,
      "Ġworship": 7903,
      "ĠKenn": 7904,
      "airy": 7905,
      "Ġplanned": 7906,
      "iotics": 7907,
      "Ġlaunched": 7908,
      "ĠDu": 7909,
      "Ġ1950": 7910,
      "ĠWithout": 7911,
      "ĠJohnson": 7912,
      "Ġnose": 7913,
      "olving": 7914,
      "ĠLow": 7915,
      "ĠObs": 7916,
      "Ġbeneficial": 7917,
      "Ġintegrated": 7918,
      "Ġdefinite": 7919,
      "rooms": 7920,
      "Ġbeans": 7921,
      "isted": 7922,
      "ĠGiven": 7923,
      "plot": 7924,
      "Ġdispar": 7925,
      "ĠSpir": 7926,
      "Ġsitting": 7927,
      "Ġanticip": 7928,
      "Ġheads": 7929,
      "Ġnarrative": 7930,
      "Ġvoices": 7931,
      "=\"": 7932,
      "ĠTry": 7933,
      "ĠDown": 7934,
      "Ġeditor": 7935,
      "ĠOnline": 7936,
      "Ġsacred": 7937,
      "CS": 7938,
      "Ġholes": 7939,
      "Ġitem": 7940,
      "Ġdisk": 7941,
      "Ġpreval": 7942,
      "Ġsuffered": 7943,
      "Ġstopped": 7944,
      "ulin": 7945,
      "Ġgrain": 7946,
      "Ġillustrate": 7947,
      "ĠAuthor": 7948,
      "Ġtack": 7949,
      "Ġtropical": 7950,
      "abul": 7951,
      "ĠProcess": 7952,
      "Ġeducators": 7953,
      "ĠClin": 7954,
      "ptic": 7955,
      "Ġoutcome": 7956,
      "Ġovercome": 7957,
      "Ġsculpt": 7958,
      "Ġfilms": 7959,
      "88": 7960,
      "Ġprime": 7961,
      "Ġcalling": 7962,
      "Ġdelivery": 7963,
      "ĠResearchers": 7964,
      "Ġstere": 7965,
      "Ġvan": 7966,
      "Ġclient": 7967,
      "issance": 7968,
      "Ġpersonality": 7969,
      "Ġhardware": 7970,
      "Ġvictory": 7971,
      "Ġinequ": 7972,
      "icide": 7973,
      "Ġdishes": 7974,
      "Ġillum": 7975,
      "hor": 7976,
      "Ġconcrete": 7977,
      "Ġmoisture": 7978,
      "ceptions": 7979,
      "Ġsentences": 7980,
      "Ġflexibility": 7981,
      "Ġhorizont": 7982,
      "ĠFollowing": 7983,
      "rapeut": 7984,
      "Ġcountless": 7985,
      "ĠAdminist": 7986,
      "Ġdirections": 7987,
      "isco": 7988,
      "ĠRelig": 7989,
      "Ġautomatically": 7990,
      "Ġsurprising": 7991,
      "Ġobjectives": 7992,
      "iah": 7993,
      "Ġregime": 7994,
      "Ġgrant": 7995,
      "Ġflows": 7996,
      "rets": 7997,
      "ĠCle": 7998,
      "ĠDen": 7999,
      "Ġdisag": 8000,
      "ĠStreet": 8001,
      "Ġsupplement": 8002,
      "Ġmarks": 8003,
      "Ġprincipal": 8004,
      "esides": 8005,
      "ĠMove": 8006,
      "Ġalter": 8007,
      "Ġcham": 8008,
      "ĠGard": 8009,
      "Ġprofit": 8010,
      "ymes": 8011,
      "Ġcolonies": 8012,
      "Ġaccurately": 8013,
      "Ġopinions": 8014,
      "ĠDivision": 8015,
      "ĠFamily": 8016,
      "anged": 8017,
      "Ġtraits": 8018,
      "Ġassociation": 8019,
      "ĠReport": 8020,
      "Ġscenes": 8021,
      "ĠType": 8022,
      "Ġisolated": 8023,
      "Ġauthentic": 8024,
      "ao": 8025,
      "Ġcab": 8026,
      "Ġfer": 8027,
      "Ġmeth": 8028,
      "Ġhun": 8029,
      "ĠCP": 8030,
      "Ġworlds": 8031,
      "sue": 8032,
      "ĠIN": 8033,
      "ĠCard": 8034,
      "Ġuncom": 8035,
      "achus": 8036,
      "ĠAppro": 8037,
      "Ġwars": 8038,
      "Ġarmed": 8039,
      "ĠCoast": 8040,
      "Ġscenarios": 8041,
      "chen": 8042,
      "ureau": 8043,
      "Ġcourses": 8044,
      "Ġecosystems": 8045,
      "Ġfest": 8046,
      "ĠSand": 8047,
      "Ġoutbre": 8048,
      "Ġregarded": 8049,
      "Ġpurchase": 8050,
      "Ġvertical": 8051,
      "Ġmanifest": 8052,
      "ĠCarolina": 8053,
      "Ġobstacles": 8054,
      "Sh": 8055,
      "Ġdict": 8056,
      "Ġtract": 8057,
      "Ġattitude": 8058,
      "Ġsolving": 8059,
      "Ġlights": 8060,
      "Ġcombining": 8061,
      "Ġracism": 8062,
      "imensional": 8063,
      "Ã¼": 8064,
      "ouds": 8065,
      "etts": 8066,
      "Ġcompos": 8067,
      "Ġregulation": 8068,
      "Ġpolar": 8069,
      "Ġchemistry": 8070,
      "Ġbabies": 8071,
      "ĠUltimately": 8072,
      "Ġreward": 8073,
      "Ġroads": 8074,
      "inking": 8075,
      "Ġproportion": 8076,
      "ĠRecent": 8077,
      "07": 8078,
      "Ġlandscapes": 8079,
      "Ġevolutionary": 8080,
      "hma": 8081,
      "ugg": 8082,
      "Ġwithd": 8083,
      "Ġtrained": 8084,
      "ĠIndust": 8085,
      "Ġexpanded": 8086,
      "71": 8087,
      "Ġflying": 8088,
      "Ġsuit": 8089,
      "Ġgenuine": 8090,
      "Ġpoison": 8091,
      "Ġattach": 8092,
      "Ġattitudes": 8093,
      "Ġcorrel": 8094,
      "Ġadapted": 8095,
      "ĠMS": 8096,
      "Ġacting": 8097,
      "Ġalternatives": 8098,
      "ĠScotland": 8099,
      "ĠCommittee": 8100,
      "kins": 8101,
      "rd": 8102,
      "Ġlake": 8103,
      "rav": 8104,
      "alls": 8105,
      "Ġpatience": 8106,
      "isticated": 8107,
      "onal": 8108,
      "roud": 8109,
      "Ġ38": 8110,
      "Ġrose": 8111,
      "ĠReading": 8112,
      "Ġboat": 8113,
      "Ġhappiness": 8114,
      "Ġsam": 8115,
      "Ġgases": 8116,
      "Ġye": 8117,
      "Ġregist": 8118,
      "ĠForce": 8119,
      "Ġdistant": 8120,
      "Ġ1992": 8121,
      "Ġchest": 8122,
      "Ġimprovements": 8123,
      "Ġtip": 8124,
      "itals": 8125,
      "roat": 8126,
      "repre": 8127,
      "omer": 8128,
      "ĠSelect": 8129,
      "ĠEgyptian": 8130,
      "Ġ]": 8131,
      "Ġperceived": 8132,
      "reprene": 8133,
      "onomic": 8134,
      "Ġdil": 8135,
      "iratory": 8136,
      "ĠFuture": 8137,
      "ĠOs": 8138,
      "weight": 8139,
      "Ġboys": 8140,
      "Ġdiscoveries": 8141,
      "ĠSystems": 8142,
      "sell": 8143,
      "ĠFil": 8144,
      "Ġplus": 8145,
      "ĠChall": 8146,
      "Ġ1993": 8147,
      "Ġpropag": 8148,
      "Ġkingdom": 8149,
      "ĠAgain": 8150,
      "Ġgest": 8151,
      "Ġconce": 8152,
      "Ġsovere": 8153,
      "Ġexcited": 8154,
      "ĠAlexander": 8155,
      "Ġcaptivating": 8156,
      "Ġcoc": 8157,
      "Ġfiber": 8158,
      "amine": 8159,
      "Ġwheat": 8160,
      "Ġperpet": 8161,
      "ĠPlant": 8162,
      "Ġtelling": 8163,
      "connected": 8164,
      "ĠHum": 8165,
      "Ġraising": 8166,
      "Ġterror": 8167,
      "Ġvaccine": 8168,
      "Ġdates": 8169,
      "Ġproviders": 8170,
      "Ġexisted": 8171,
      "Ġaims": 8172,
      "oys": 8173,
      "eries": 8174,
      "Ġmice": 8175,
      "ĠColon": 8176,
      "Ġrecognizing": 8177,
      "Ġnavigating": 8178,
      "Ġscenario": 8179,
      "onymous": 8180,
      "Ġnervous": 8181,
      "Ġfet": 8182,
      "Ġgathered": 8183,
      "Ġscan": 8184,
      "Ġavailability": 8185,
      "ercury": 8186,
      "RA": 8187,
      "onomy": 8188,
      "Ġarbit": 8189,
      "Ġvisitors": 8190,
      "But": 8191,
      "Ġion": 8192,
      "Ġselling": 8193,
      "lymp": 8194,
      "Ġgentle": 8195,
      "ĠView": 8196,
      "Ġgrab": 8197,
      "Ġofficer": 8198,
      "Ġfinger": 8199,
      "Ġchromos": 8200,
      "Ġinflammation": 8201,
      "Ġempty": 8202,
      "Ad": 8203,
      "Ġcha": 8204,
      "ĠCancer": 8205,
      "Ġversus": 8206,
      "Ġpsychology": 8207,
      "Ġtargets": 8208,
      "Ġwonderful": 8209,
      "esity": 8210,
      "Ġlists": 8211,
      "ĠAP": 8212,
      "urches": 8213,
      "Ġearliest": 8214,
      "Ġelsewhere": 8215,
      "Ġpreparing": 8216,
      "Ġkilomet": 8217,
      "ruption": 8218,
      "Ġcontributes": 8219,
      "Ġcounsel": 8220,
      "Ġturb": 8221,
      "Ġcovering": 8222,
      "Ġancestors": 8223,
      "68": 8224,
      "Ġrepair": 8225,
      "azz": 8226,
      "Ġcheese": 8227,
      "74": 8228,
      "Ġvig": 8229,
      "Ġbreeding": 8230,
      "Ġloop": 8231,
      "Ġmaintained": 8232,
      "Ġneurons": 8233,
      "isd": 8234,
      "Ġemer": 8235,
      "Ġrecon": 8236,
      "Ġsuppl": 8237,
      "Ġmedieval": 8238,
      "ĠSwed": 8239,
      "iological": 8240,
      "ila": 8241,
      "aped": 8242,
      "Ġblind": 8243,
      "Ġslave": 8244,
      "ĠText": 8245,
      "Ġfalling": 8246,
      "Ġcooling": 8247,
      "Ġmetabol": 8248,
      "For": 8249,
      "lete": 8250,
      "sem": 8251,
      "aved": 8252,
      "Ġeru": 8253,
      "Ġfarming": 8254,
      "Ġfeaturing": 8255,
      "ĠFort": 8256,
      "Ġdish": 8257,
      "ĠComple": 8258,
      "Ġidentical": 8259,
      "Ġdefinitions": 8260,
      "New": 8261,
      "RC": 8262,
      "edge": 8263,
      "ĠWelcome": 8264,
      "Ġdelicious": 8265,
      "Ġpointed": 8266,
      "ĠOften": 8267,
      "Ġsilver": 8268,
      "Ġsequences": 8269,
      "Ġnovels": 8270,
      "Ġwel": 8271,
      "ceans": 8272,
      "ĠJam": 8273,
      "ĠEnter": 8274,
      "ĠSecret": 8275,
      "Ġquantity": 8276,
      "::": 8277,
      "ihood": 8278,
      "urning": 8279,
      "Ġhence": 8280,
      "Ġepisode": 8281,
      "On": 8282,
      "TC": 8283,
      "ĠÐ": 8284,
      "ĠHit": 8285,
      "ĠRh": 8286,
      "Ġclients": 8287,
      "Ġspecified": 8288,
      "Ġwarning": 8289,
      "Ġcritically": 8290,
      "Ġ150": 8291,
      "ĠStandard": 8292,
      "Ġcommission": 8293,
      "ishop": 8294,
      "Ġreferences": 8295,
      "Ġ65": 8296,
      "print": 8297,
      "Ġhyd": 8298,
      "Ġkidney": 8299,
      "Ġchose": 8300,
      "Ġagent": 8301,
      "Ġbiggest": 8302,
      "Ġindicated": 8303,
      "Ġvelocity": 8304,
      "ĠFar": 8305,
      "Ġflavor": 8306,
      "Ġgrains": 8307,
      "brid": 8308,
      "ĠBoston": 8309,
      "Ġfalls": 8310,
      "ĠOlymp": 8311,
      "Ġminimal": 8312,
      "Ġrenewable": 8313,
      "def": 8314,
      "Ġtong": 8315,
      "rection": 8316,
      "erted": 8317,
      "ĠAff": 8318,
      "ĠSund": 8319,
      "Ġorgans": 8320,
      "Ġanywhere": 8321,
      "Ġdistances": 8322,
      "Ġdesigning": 8323,
      "Ġpressing": 8324,
      "Ġfishing": 8325,
      "Ġcontrolling": 8326,
      "Ġhousing": 8327,
      "Ġ!": 8328,
      "ĠAC": 8329,
      "ĠSource": 8330,
      "Ġhaven": 8331,
      "ĠVI": 8332,
      "Ġelections": 8333,
      "Ġinfluential": 8334,
      "Ġexperiencing": 8335,
      "Ġexcit": 8336,
      "Ġmeasurement": 8337,
      "ĠTHE": 8338,
      "achusetts": 8339,
      "Ġoccas": 8340,
      "overing": 8341,
      "Ġdiameter": 8342,
      "pie": 8343,
      "ĠDictionary": 8344,
      "ediat": 8345,
      "Ġsolely": 8346,
      "Med": 8347,
      "onia": 8348,
      "ĠVar": 8349,
      "Ġcolony": 8350,
      "ĠDev": 8351,
      "Ġcharacteristic": 8352,
      "Ġecological": 8353,
      "Ġphilosop": 8354,
      "Ġhabitats": 8355,
      "Ġsatisfact": 8356,
      "Ġsophisticated": 8357,
      "ĠAM": 8358,
      "anger": 8359,
      "Ġradical": 8360,
      "Ġsafely": 8361,
      "iblical": 8362,
      "Ġpin": 8363,
      "imedia": 8364,
      "Ġheating": 8365,
      "ĠDyn": 8366,
      "Ġplenty": 8367,
      "Ġbutton": 8368,
      "ega": 8369,
      "Ġdetermining": 8370,
      "Ġsurrounded": 8371,
      "ĠQueen": 8372,
      "72": 8373,
      "bell": 8374,
      "fe": 8375,
      "iary": 8376,
      "Ġbath": 8377,
      "Ġtot": 8378,
      "Ġabnormal": 8379,
      "ocument": 8380,
      "Ġidentification": 8381,
      "Ġharder": 8382,
      "Ġinvestigate": 8383,
      "Ġprotective": 8384,
      "Ġharmony": 8385,
      "Ġtables": 8386,
      "Ġlosing": 8387,
      "Ġnic": 8388,
      "Ġpermission": 8389,
      "Ġenhanced": 8390,
      "98": 8391,
      "oded": 8392,
      "rium": 8393,
      "Ġspoke": 8394,
      "Ġevening": 8395,
      "Ġexpanding": 8396,
      "Ġgraphic": 8397,
      "natural": 8398,
      "enced": 8399,
      "itory": 8400,
      "Ġyes": 8401,
      "ĠUr": 8402,
      "Ġequations": 8403,
      "ĠLeon": 8404,
      "Ġexhibit": 8405,
      "ĠNetwork": 8406,
      "asant": 8407,
      "rag": 8408,
      "ĠBu": 8409,
      "ĠHill": 8410,
      "Ġresc": 8411,
      "ĠKar": 8412,
      "haust": 8413,
      "ING": 8414,
      "Ġresident": 8415,
      "ĠProper": 8416,
      "Ġopposition": 8417,
      "Ġportray": 8418,
      "Ġconsciousness": 8419,
      "Ġperfectly": 8420,
      "Ġprospect": 8421,
      "ĠCopyright": 8422,
      ".).": 8423,
      "58": 8424,
      "Ġsessions": 8425,
      "Ġmos": 8426,
      "Ġislands": 8427,
      "ĠSciences": 8428,
      "Ġdiffer": 8429,
      "Ġdebates": 8430,
      "ĠStory": 8431,
      "uese": 8432,
      "Ġcurve": 8433,
      "Ġessence": 8434,
      "Ġ1940": 8435,
      "ĠScholar": 8436,
      "Åį": 8437,
      "Ġtang": 8438,
      "agan": 8439,
      "Ġthreatened": 8440,
      "Ġdramatic": 8441,
      "ivered": 8442,
      "ĠLim": 8443,
      "pling": 8444,
      "Ġ48": 8445,
      "Ġmemor": 8446,
      "ĠBooks": 8447,
      "aters": 8448,
      "ĠKen": 8449,
      "iously": 8450,
      "ĠPractice": 8451,
      "73": 8452,
      "EP": 8453,
      "iov": 8454,
      "emia": 8455,
      "oster": 8456,
      "Ġdoors": 8457,
      "egin": 8458,
      "Ġflexible": 8459,
      "OL": 8460,
      "elfare": 8461,
      "Ġcombine": 8462,
      "Ġabsence": 8463,
      "ĠMassachusetts": 8464,
      "Ġol": 8465,
      "Ġstroke": 8466,
      "geon": 8467,
      "Ġclay": 8468,
      "Ġclothes": 8469,
      "Ġclassification": 8470,
      "Ġtemporary": 8471,
      "Ġphotos": 8472,
      "rapeutic": 8473,
      "RL": 8474,
      "Ġpairs": 8475,
      "ounce": 8476,
      "Ġneural": 8477,
      "duction": 8478,
      "Ġ1991": 8479,
      "including": 8480,
      "Ġwebsites": 8481,
      "Ġgolden": 8482,
      "sm": 8483,
      "iler": 8484,
      "Ġnom": 8485,
      "ĠHand": 8486,
      "acies": 8487,
      "ĠJun": 8488,
      "Ġedges": 8489,
      "ĠPlace": 8490,
      "Ġestablishing": 8491,
      "Ġstreets": 8492,
      "And": 8493,
      "gian": 8494,
      "Ġeager": 8495,
      "Ġanthrop": 8496,
      "Ġsup": 8497,
      "Ġpopularity": 8498,
      "Ġspectrum": 8499,
      "IP": 8500,
      "host": 8501,
      "iture": 8502,
      "agraph": 8503,
      "ĠHaving": 8504,
      "ĠEmer": 8505,
      "Ġprecious": 8506,
      "Ġminerals": 8507,
      "Ġempire": 8508,
      "Ġinhabitants": 8509,
      "Ġnode": 8510,
      "ĠSym": 8511,
      "Ġasc": 8512,
      "Ġreflects": 8513,
      "Ġlifestyle": 8514,
      "Ġacquired": 8515,
      "Ġemerge": 8516,
      "aired": 8517,
      "Ġtooth": 8518,
      "rip": 8519,
      "ĠOcc": 8520,
      "Ġincident": 8521,
      "Ġpartner": 8522,
      "Ġinterior": 8523,
      "Ġsmoke": 8524,
      "Ġlegacy": 8525,
      "agnetic": 8526,
      "Ġworksh": 8527,
      "cult": 8528,
      "Ġunp": 8529,
      "Ġflash": 8530,
      "Ġtransmit": 8531,
      "Ġdistinguish": 8532,
      "Ġluck": 8533,
      "ĠSqu": 8534,
      "Ġreconst": 8535,
      "Ġvisited": 8536,
      "ĠNavy": 8537,
      "ĠLastly": 8538,
      "Ġintr": 8539,
      "Ġcomplement": 8540,
      "ĠIndepend": 8541,
      "Ġstruggles": 8542,
      "Ġpregnant": 8543,
      "elve": 8544,
      "Ġexch": 8545,
      "enny": 8546,
      "When": 8547,
      "Ġcow": 8548,
      "Ġwheel": 8549,
      "ĠJac": 8550,
      "Ġcompound": 8551,
      "Ġ33": 8552,
      "Ġamino": 8553,
      "Ġexped": 8554,
      "Ġphysically": 8555,
      "Ġcrack": 8556,
      "Ġdatas": 8557,
      "icular": 8558,
      "ulous": 8559,
      "Ġcovers": 8560,
      "Ġreasonable": 8561,
      "Ġrestrictions": 8562,
      "dr": 8563,
      "oom": 8564,
      "Ġles": 8565,
      "iments": 8566,
      "raq": 8567,
      "Ġchap": 8568,
      "Ġenorm": 8569,
      "Ġinfant": 8570,
      "Ġlasting": 8571,
      "Ġprecisely": 8572,
      "Ġbag": 8573,
      "Ġcycles": 8574,
      "Ġreflecting": 8575,
      "Ġenthusi": 8576,
      "ĠNevertheless": 8577,
      "Ġpractitioners": 8578,
      "uten": 8579,
      "Ġwearing": 8580,
      "Ġcooperation": 8581,
      "Ġmovies": 8582,
      "Ġmarketing": 8583,
      "Ġcustomer": 8584,
      "Ġestimates": 8585,
      "ĠCommunity": 8586,
      "Ġconvin": 8587,
      "ĠImpact": 8588,
      "Ġtone": 8589,
      "Ġhal": 8590,
      "eties": 8591,
      "oln": 8592,
      "Ġconj": 8593,
      "Ġentering": 8594,
      "Ġcivilization": 8595,
      "Ġhonest": 8596,
      "Ġcurriculum": 8597,
      "igan": 8598,
      "Ġshifts": 8599,
      "ĠOxford": 8600,
      "OC": 8601,
      "rical": 8602,
      "riz": 8603,
      "ĠJacks": 8604,
      "Ġ34": 8605,
      "Ġcomprehension": 8606,
      "Ġupdated": 8607,
      "Ġhoney": 8608,
      "ĠSup": 8609,
      "quar": 8610,
      "Ġcalm": 8611,
      "ĠFacebook": 8612,
      "OP": 8613,
      "iger": 8614,
      "ĠFund": 8615,
      "apor": 8616,
      "Ġcompetitive": 8617,
      "Ġtargeted": 8618,
      "Ġadopt": 8619,
      "ĠBattle": 8620,
      "Ġnewspaper": 8621,
      "Ġhypothesis": 8622,
      "Ġsister": 8623,
      "itarian": 8624,
      "Ġreaches": 8625,
      "Ġevident": 8626,
      "oons": 8627,
      "otton": 8628,
      "Ġpharm": 8629,
      "Ġ55": 8630,
      "Ġbuff": 8631,
      "Ġedition": 8632,
      "Ġproductivity": 8633,
      "Ġprivacy": 8634,
      "Ġviolent": 8635,
      "ĠRelated": 8636,
      "ĠBetween": 8637,
      "abulary": 8638,
      "friend": 8639,
      "Ġsession": 8640,
      "pled": 8641,
      "Ġinfinite": 8642,
      "Ġglobe": 8643,
      "Ġbias": 8644,
      "Ġschedul": 8645,
      "ĠNap": 8646,
      "ĠOpp": 8647,
      "Ġundert": 8648,
      "reek": 8649,
      "Ġtailored": 8650,
      "IA": 8651,
      "Ġexceed": 8652,
      "Ġrefused": 8653,
      "ĠWrite": 8654,
      "Ġfuels": 8655,
      "Ġlip": 8656,
      "Ġlaser": 8657,
      "Ġstones": 8658,
      "ĠMong": 8659,
      "ĠNic": 8660,
      "Ġresid": 8661,
      "Ġsubtle": 8662,
      "Ġanalys": 8663,
      "Ġstatistics": 8664,
      "Ġreligions": 8665,
      "Ġmigration": 8666,
      "Ġcable": 8667,
      "igned": 8668,
      "Ġpool": 8669,
      "erman": 8670,
      "Ġtranslation": 8671,
      "Ġconsiderations": 8672,
      "Ġliteracy": 8673,
      "Ġapparently": 8674,
      "ĠHTML": 8675,
      "oids": 8676,
      "va": 8677,
      "Ġcontents": 8678,
      "Ġburied": 8679,
      "aus": 8680,
      "rance": 8681,
      "ori": 8682,
      "Ġpou": 8683,
      "Ġmail": 8684,
      "ĠStill": 8685,
      "ountered": 8686,
      "Ġrecre": 8687,
      "Ġcirculation": 8688,
      "Ġquantities": 8689,
      "Ġspeakers": 8690,
      "Ġcort": 8691,
      "Ġfur": 8692,
      "Ġbreaks": 8693,
      "Ġsettled": 8694,
      "Ġuniversities": 8695,
      "Ġbits": 8696,
      "idation": 8697,
      "oto": 8698,
      "actions": 8699,
      "Ġ37": 8700,
      "Ġvariation": 8701,
      "Ġstriking": 8702,
      "vania": 8703,
      "hend": 8704,
      "Ġcourage": 8705,
      "ĠIde": 8706,
      "!!": 8707,
      "69": 8708,
      "IM": 8709,
      "box": 8710,
      "jud": 8711,
      "ĠCook": 8712,
      "ĠMach": 8713,
      "Ġpublication": 8714,
      "Ġencountered": 8715,
      "ĠKorean": 8716,
      "Ġhormone": 8717,
      "Ġbull": 8718,
      "allow": 8719,
      "eping": 8720,
      "Ġeconomics": 8721,
      "Ġwinds": 8722,
      "ĠSmall": 8723,
      "Ġteachings": 8724,
      "Ġov": 8725,
      "Ġft": 8726,
      "Ġbears": 8727,
      "ĠLead": 8728,
      "aka": 8729,
      "eck": 8730,
      "aws": 8731,
      "Ġpasses": 8732,
      "Ġdelivered": 8733,
      "Ġlanding": 8734,
      "Ġreplied": 8735,
      "Ġintegrity": 8736,
      "aste": 8737,
      "Ġtea": 8738,
      "Ġchoosing": 8739,
      "ĠPriv": 8740,
      "Ġfootball": 8741,
      "ĠAgricult": 8742,
      "Ġreinfor": 8743,
      "dimensional": 8744,
      "produ": 8745,
      "Ġtough": 8746,
      "Ġhurt": 8747,
      "Ġbeet": 8748,
      "acial": 8749,
      "Ġworst": 8750,
      "Ġcompelling": 8751,
      "ĠPlus": 8752,
      "Ġviewed": 8753,
      "Ġaccordingly": 8754,
      "Ġpositively": 8755,
      "Ġstruck": 8756,
      "ĠBoard": 8757,
      "IDS": 8758,
      "Ġsaved": 8759,
      "ĠDisease": 8760,
      "_{": 8761,
      "ĠEvent": 8762,
      "Ġimmers": 8763,
      "Ġbrains": 8764,
      "ĠJackson": 8765,
      "Ġfo": 8766,
      "omp": 8767,
      "Ġseat": 8768,
      "upiter": 8769,
      "Ġrelevance": 8770,
      "bel": 8771,
      "asures": 8772,
      "ĠAh": 8773,
      "Ġspr": 8774,
      "Ġdisput": 8775,
      "Ġstaying": 8776,
      "Ġassumptions": 8777,
      "Ġappointed": 8778,
      "ĠColumbia": 8779,
      "Ġmine": 8780,
      "Ġrender": 8781,
      "Ġkilling": 8782,
      "Ġcentre": 8783,
      "aimed": 8784,
      "Ġcontainer": 8785,
      "Ġinteractive": 8786,
      "Ġjudge": 8787,
      "Ġexplaining": 8788,
      "Google": 8789,
      "uits": 8790,
      "Ġembed": 8791,
      "Ġpaths": 8792,
      "Ġdemonstrates": 8793,
      "Ġprinted": 8794,
      "test": 8795,
      "Ġmodule": 8796,
      "ĠResources": 8797,
      "anned": 8798,
      "Ġaxis": 8799,
      "nov": 8800,
      "Ġtoys": 8801,
      "ĠCode": 8802,
      "Ġinvasion": 8803,
      "Ġmetaph": 8804,
      "Ġpackage": 8805,
      "ĠProtest": 8806,
      "ĠAvoid": 8807,
      "Ġundersc": 8808,
      "53": 8809,
      "Ġspan": 8810,
      "Ġinspect": 8811,
      "Ġcentered": 8812,
      "Ġfault": 8813,
      "Why": 8814,
      "ĠPortuguese": 8815,
      "US": 8816,
      "Ġpion": 8817,
      "Ġfrust": 8818,
      "Ġhat": 8819,
      "ĠCE": 8820,
      "ockey": 8821,
      "Ġclouds": 8822,
      "ĠChristmas": 8823,
      "Ġdescribing": 8824,
      "Ġcommunications": 8825,
      "she": 8826,
      "rob": 8827,
      "ĠSearch": 8828,
      "ĠBul": 8829,
      "Ġflower": 8830,
      "Ġassumed": 8831,
      "Ġbegun": 8832,
      "Ġjuvenile": 8833,
      "Ġfed": 8834,
      "Ġmes": 8835,
      "Ġdrought": 8836,
      "asma": 8837,
      "Ġstations": 8838,
      "ĠArist": 8839,
      "osphere": 8840,
      "Ġatmospheric": 8841,
      "Ġprosper": 8842,
      "Ġstakeholders": 8843,
      "Ġillegal": 8844,
      "LA": 8845,
      "function": 8846,
      "Ġproud": 8847,
      "olved": 8848,
      "oting": 8849,
      "Ġdischar": 8850,
      "Ġequipped": 8851,
      "Ġjudgment": 8852,
      "Ġinvolvement": 8853,
      "amiliar": 8854,
      "asm": 8855,
      "Ġchlor": 8856,
      "Ġfever": 8857,
      "Ġdipl": 8858,
      "Ġpasseng": 8859,
      "Ġbroke": 8860,
      "Ġforever": 8861,
      "Ġcalculated": 8862,
      "Ġ39": 8863,
      "ĠAncient": 8864,
      "Ġenjoyed": 8865,
      "zymes": 8866,
      "arks": 8867,
      "ĠBir": 8868,
      "ĠPur": 8869,
      "Ġgenre": 8870,
      "type": 8871,
      "bean": 8872,
      "Ġtexture": 8873,
      "ĠGuid": 8874,
      "Ġneutral": 8875,
      "ĠBusiness": 8876,
      "quis": 8877,
      "ĠOk": 8878,
      "ĠEmperor": 8879,
      "Ġlogical": 8880,
      "Ġfraction": 8881,
      "Ġinclusive": 8882,
      "otype": 8883,
      "ĠOrganization": 8884,
      "ois": 8885,
      "orters": 8886,
      "ctors": 8887,
      "olk": 8888,
      "ĠIraq": 8889,
      "Ġproven": 8890,
      "Ġassets": 8891,
      "Ġtumor": 8892,
      "Ġchicken": 8893,
      "Ġmystery": 8894,
      "ĠDigital": 8895,
      "Ġaccompanied": 8896,
      "TS": 8897,
      "power": 8898,
      "Ġborrow": 8899,
      "Ġadvert": 8900,
      "Ġbrid": 8901,
      "Ġ//": 8902,
      "Ġevolving": 8903,
      "Ġnodes": 8904,
      "adel": 8905,
      "Ġexhaust": 8906,
      "Ġchances": 8907,
      "Ġhighlights": 8908,
      "exp": 8909,
      "Ġvisiting": 8910,
      "ocolate": 8911,
      "Ġmammals": 8912,
      "Ġcav": 8913,
      "Ġcontamin": 8914,
      "Ġlock": 8915,
      "Ġengines": 8916,
      "Ġvideos": 8917,
      "Ġsuscept": 8918,
      "Ġimagination": 8919,
      "Ġconfirm": 8920,
      "Ġconfirmed": 8921,
      "fare": 8922,
      "Ġbeach": 8923,
      "ĠOtt": 8924,
      "ĠJane": 8925,
      "Ġrecording": 8926,
      "Ġinterconnected": 8927,
      "Ġgrows": 8928,
      "mann": 8929,
      "Ġpaying": 8930,
      "Ġirr": 8931,
      "Ġpanel": 8932,
      "Ġparameter": 8933,
      "Ġrecommendations": 8934,
      "ĠMicrosoft": 8935,
      "Ġregulatory": 8936,
      "%.": 8937,
      "Ġreef": 8938,
      "ĠRab": 8939,
      "ĠJupiter": 8940,
      "Ġ1930": 8941,
      "icking": 8942,
      "Ġdiscipline": 8943,
      "rons": 8944,
      "Ġshares": 8945,
      "Ġdemocratic": 8946,
      "ĠGermans": 8947,
      "56": 8948,
      "Ġassert": 8949,
      "words": 8950,
      "ref": 8951,
      "ĠVit": 8952,
      "Ġembry": 8953,
      "Ġbattles": 8954,
      "Ġscholar": 8955,
      "Ġcounterpart": 8956,
      "Ġdropped": 8957,
      "ĠMuslims": 8958,
      "Ġlungs": 8959,
      "Ġtale": 8960,
      "Ġsevent": 8961,
      "Ġconfusion": 8962,
      "Ġreasoning": 8963,
      "Ġcopies": 8964,
      "ĠAntar": 8965,
      "Ġterritories": 8966,
      "Ġathletes": 8967,
      "made": 8968,
      "ĠFire": 8969,
      "ĠMedia": 8970,
      "Ġachieving": 8971,
      "ĠObama": 8972,
      "ĠEvolution": 8973,
      "Ġconcluded": 8974,
      "Ġorientation": 8975,
      "vi": 8976,
      "ethe": 8977,
      "ĠMP": 8978,
      "Ġchair": 8979,
      "Ġindirect": 8980,
      "ĠContemporary": 8981,
      "Ġunlikely": 8982,
      "Ġexcitement": 8983,
      "89": 8984,
      "iotic": 8985,
      "ãĤ": 8986,
      "ĠTitle": 8987,
      "actic": 8988,
      "lude": 8989,
      "Ġentreprene": 8990,
      "Ġcollecting": 8991,
      "iders": 8992,
      "izers": 8993,
      "ĠQuestions": 8994,
      "rin": 8995,
      "ĠAgency": 8996,
      "ĠCra": 8997,
      "ĠHam": 8998,
      "Ġ||": 8999,
      "ĠInterest": 9000,
      "Ġcommander": 9001,
      "Ġpreferred": 9002,
      "Once": 9003,
      "mm": 9004,
      "Ġcrown": 9005,
      "Ġborders": 9006,
      "Ġintention": 9007,
      "Ġadvers": 9008,
      "Ġreserved": 9009,
      "Ġunn": 9010,
      "egu": 9011,
      "Ġrestric": 9012,
      "Ġforecast": 9013,
      "Ġoccurring": 9014,
      "mates": 9015,
      "iner": 9016,
      "urrent": 9017,
      "ifier": 9018,
      "ĠMaterial": 9019,
      "ĠBest": 9020,
      "Ġshore": 9021,
      "ĠSpring": 9022,
      "Ġstatistical": 9023,
      "Ġfarms": 9024,
      "ĠConservation": 9025,
      "ĠOthers": 9026,
      "Ġsettlement": 9027,
      "Ã±": 9028,
      "erb": 9029,
      "Ġbiodiversity": 9030,
      "Ġvow": 9031,
      "ĠEll": 9032,
      "Ġende": 9033,
      "syl": 9034,
      "Ġbatteries": 9035,
      "Ġreflected": 9036,
      "Ġutility": 9037,
      "Ġembrace": 9038,
      "Ġdreams": 9039,
      "Ġscheme": 9040,
      "ĠHitler": 9041,
      "Ġcher": 9042,
      "ĠMi": 9043,
      "ĠMid": 9044,
      "Ġeverywhere": 9045,
      "Ġpromising": 9046,
      "Ġacceptance": 9047,
      "ĠID": 9048,
      "ĠNorm": 9049,
      "Ġoperators": 9050,
      "Ġtransformed": 9051,
      "Ġexecution": 9052,
      "zyme": 9053,
      "ĠMajor": 9054,
      "Ġintest": 9055,
      "Ġprey": 9056,
      "Ġaside": 9057,
      "ifts": 9058,
      "ĠThird": 9059,
      "iki": 9060,
      "Ġmolecule": 9061,
      "Ġaltered": 9062,
      "ĠTrend": 9063,
      "pace": 9064,
      "iva": 9065,
      "Ġconserv": 9066,
      "Ġscr": 9067,
      "Ġoccasionally": 9068,
      "Ġjurisd": 9069,
      "ga": 9070,
      "Ġoceans": 9071,
      "ĠFred": 9072,
      "rize": 9073,
      "ĠJump": 9074,
      "Ġclock": 9075,
      "Ġgluc": 9076,
      "Ġmechanics": 9077,
      "Ġchurches": 9078,
      "Ġassault": 9079,
      "Ġowned": 9080,
      "Ġthorough": 9081,
      "SC": 9082,
      "vard": 9083,
      "ĠSep": 9084,
      "Ġcomplications": 9085,
      "ĠHim": 9086,
      "osexual": 9087,
      "Ġintegrating": 9088,
      "ĠÂ£": 9089,
      "67": 9090,
      "To": 9091,
      "eras": 9092,
      "Ġpy": 9093,
      "Ġloyal": 9094,
      "ĠComb": 9095,
      "Ġbreed": 9096,
      "Ġcalories": 9097,
      "Ġloose": 9098,
      "attered": 9099,
      "ĠReturn": 9100,
      "Ġcamps": 9101,
      "ĠMaster": 9102,
      "antine": 9103,
      "ĠNut": 9104,
      "uality": 9105,
      "Ġcoverage": 9106,
      "ools": 9107,
      "Ġrespiratory": 9108,
      "Ġreporting": 9109,
      "Ġintegral": 9110,
      "Ġmagnitude": 9111,
      "Ġcriticism": 9112,
      "Ġaesthetic": 9113,
      "Title": 9114,
      "Ġdecay": 9115,
      "Ġcrimes": 9116,
      "Ġsuggesting": 9117,
      "Ġnecessit": 9118,
      "Ġaddressed": 9119,
      "Ġconsistently": 9120,
      "Ġattempted": 9121,
      "Ġinnovations": 9122,
      "Ġdimin": 9123,
      "ĠCultural": 9124,
      "Ġeliminate": 9125,
      "Ġpushing": 9126,
      "Ġnitrogen": 9127,
      "ricane": 9128,
      "Ġdownload": 9129,
      "ĠLeague": 9130,
      "Ġsuspect": 9131,
      "`.": 9132,
      "Ġho": 9133,
      "ctu": 9134,
      "ustain": 9135,
      "Ġentities": 9136,
      "Ġbelieves": 9137,
      "arents": 9138,
      "Ġcattle": 9139,
      "Ġwooden": 9140,
      "Ġestablishment": 9141,
      "Ġduty": 9142,
      "Ġlinguistic": 9143,
      "')": 9144,
      "cor": 9145,
      "ket": 9146,
      "Ġgast": 9147,
      "Ġstew": 9148,
      "ĠCorn": 9149,
      "ĠBased": 9150,
      "ĠWal": 9151,
      "ĠNeg": 9152,
      "Ġdevast": 9153,
      "ĠLee": 9154,
      "incoln": 9155,
      "Ġvirtually": 9156,
      "Ġisolation": 9157,
      "Ġsending": 9158,
      "Ġpeers": 9159,
      "Ġtrace": 9160,
      "Ġintersection": 9161,
      "Ġprivile": 9162,
      "My": 9163,
      "Ġwine": 9164,
      "Ġmouse": 9165,
      "ĠMess": 9166,
      "quit": 9167,
      "ĠJon": 9168,
      "dule": 9169,
      "Ġgover": 9170,
      "ĠAsh": 9171,
      "rency": 9172,
      "Ġfunctioning": 9173,
      "Ġwindows": 9174,
      "59": 9175,
      "ĠPoly": 9176,
      "ĠRam": 9177,
      "ĠAltern": 9178,
      "Ġpassword": 9179,
[...]
